{"overheard": 20443, "shrink": 22802, "richie": 14411, "gameplay": 11247, "maybe": 2672, "compartment": 15273, "[unused205]": 210, "book": 2338, "gallagher": 17297, "\u0441": 1196, "##tia": 10711, "##jou": 23099, "##vot": 22994, "trees": 3628, "bohemia": 16799, "bathrooms": 28942, "minimize": 18478, "##\u540c": 30320, "##mmel": 29033, "##70": 19841, "regardless": 7539, "monique": 26194, "##66": 28756, "detective": 6317, "francoise": 28979, "asthma": 26180, "##\u2116": 30106, "inaccessible": 29104, "\u09a6": 1364, "wnba": 25554, "brightness": 18295, "orchestras": 19505, "cyrus": 16123, "surplus": 15726, "\u0e17": 1412, "maiden": 10494, "##tly": 14626, "hq": 16260, "peculiar": 14099, "1709": 28955, "alfred": 6152, "##twined": 21077, "##lius": 15513, "[unused866]": 871, "hickory": 28158, "paisley": 23321, "recommendations": 11433, "[unused392]": 397, "##craft": 10419, "dil": 29454, "toyota": 11742, "feral": 18993, "waterford": 17769, "[unused200]": 205, "ugly": 9200, "headlines": 19377, ".": 1012, "year": 2095, "[unused148]": 153, "drain": 12475, "marylebone": 28537, "peng": 26473, "spaghetti": 26666, "utilization": 27891, "##quil": 26147, "advocacy": 12288, "bug": 11829, "cumbria": 25559, "##holes": 19990, "##due": 20041, "##lous": 15534, "\u10d1": 1439, "302": 22060, "##iface": 29164, "bleak": 21657, "specialists": 15744, "enacted": 11955, "##sta": 9153, "darwin": 11534, "keynote": 25569, "##bow": 18912, "##hall": 9892, "##\u0995": 29889, "\u1d9c": 1511, "ark": 15745, "arrests": 17615, "immigrated": 17352, "fordham": 27302, "oregon": 5392, "sustaining": 22663, "70": 3963, "fact": 2755, "repulsed": 24571, "##ers": 2545, "hank": 9180, "##sack": 25607, "furniture": 7390, "presidential": 4883, "quo": 22035, "##\uff0c": 30515, "wounded": 5303, "arboretum": 25197, "im": 10047, "##\u27e8": 30155, "##mist": 23738, "lambert": 12838, "professionally": 12145, "##ischen": 24488, "casino": 9270, "db": 16962, "themes": 6991, "committee": 2837, "[unused299]": 304, "##mament": 28119, "barbara": 6437, "pussy": 22418, "staged": 9813, "horizontal": 9876, "pittsburgh": 6278, "coincidence": 16507, "ported": 27650, "##kura": 28260, "gazed": 11114, "broader": 12368, "location": 3295, "undone": 25757, "aerospace": 13395, "dipped": 13537, "exceptions": 11790, "marianne": 19887, "fetal": 25972, "routines": 23964, "maintaining": 8498, "magic": 3894, "specializes": 16997, "unconstitutional": 20454, "filing": 15242, "riding": 5559, "fridays": 26587, "compiled": 9227, "##hausen": 13062, "##hora": 16977, "assam": 15181, "relevant": 7882, "[unused771]": 776, "jacques": 7445, "dull": 10634, "ck": 23616, "##a1": 27717, "virgin": 6261, "attach": 22476, "enveloped": 25407, "##type": 13874, "##\u0f42": 29962, "dummy": 24369, "aura": 15240, "##ware": 8059, "examination": 7749, "cheekbones": 27181, "kari": 27356, "##200": 28332, "##\u00f0": 29668, "judith": 12924, "reward": 10377, "climb": 7105, "pondered": 28347, "overtook": 28920, "intentionally": 15734, "##\u10d3": 29977, "shipments": 24636, "gifts": 9604, "its": 2049, "##etched": 29574, "accusing": 16723, "##late": 13806, "advertised": 17099, "1929": 4612, "[unused930]": 935, "##nare": 26148, "artemis": 19063, "fortress": 7841, "320": 13710, "[unused433]": 438, "turquoise": 28653, "olympian": 25977, "bedford": 12003, "accepting": 10564, "features": 2838, "alleviate": 24251, "##itive": 13043, "##ently": 28198, "##\u0645": 22192, "battlefield": 11686, "sudbury": 26487, "noteworthy": 19144, "commissioning": 21612, "##pee": 28084, "misunderstood": 28947, "screenings": 25437, "##feld": 8151, "bruins": 18159, "kappa": 16000, "fay": 23201, "##ven": 8159, "weighs": 21094, "haunted": 11171, "##\u751f": 30436, "talking": 3331, "birth": 4182, "cast": 3459, "resolve": 10663, "thirteenth": 14725, "\u028c": 1134, "##dell": 12662, "gave": 2435, "uno": 27776, "darkness": 4768, "favoured": 16822, "funeral": 6715, "\u03c1": 1171, "dai": 18765, "weiss": 17889, "paddington": 26318, "smartphone": 26381, "differentiate": 21032, "pharmacy": 13882, "mumbled": 11567, "execution": 7781, "##lick": 25230, "[unused253]": 258, "##ening": 7406, "patel": 20455, "slave": 6658, "definitions": 15182, "##ropriation": 26121, "madras": 12993, "batavia": 28917, "##hun": 17157, "##ans": 6962, "##ond": 15422, "##ama": 8067, "apologetic": 29352, "setup": 16437, "tequila": 26791, "remark": 17674, "[unused245]": 250, "reinforcement": 23895, "mentally": 10597, "##vill": 26548, "giving": 3228, "thai": 7273, "talbot": 14838, "[unused774]": 779, "madame": 10602, "rupert": 14641, "blanchard": 26870, "##less": 3238, "[unused98]": 99, "concussion": 23159, "outfit": 11018, "lindsey": 17518, "trend": 9874, "1996": 2727, "homer": 11525, "confrontation": 13111, "##nl": 20554, "furiously": 20322, "nikolay": 28494, "##thesis": 25078, "nrhp": 22424, "refined": 15514, "\u3064": 1664, "mischievous": 25723, "mesopotamia": 25889, "mathematician": 13235, "tread": 29449, "westwood": 21730, "cactus": 23265, "rv": 27634, "marches": 20691, "playboy": 18286, "focal": 15918, "##sman": 11512, "magma": 28933, "wreath": 29586, "shore": 5370, "diego": 5277, "1975": 3339, "redundant": 21707, "elisa": 29490, "guarded": 13802, "caucus": 13965, "directing": 9855, "1701": 26059, "perform": 4685, "referred": 3615, "tariff": 23234, "\u043a": 1189, "##re": 2890, "crab": 18081, "glowing": 10156, "1750": 18171, "##gs": 5620, "fungi": 15289, "impaired": 18234, "##rie": 7373, "peyton": 17931, "mounting": 15986, "##\u2206": 30122, "audiences": 9501, "blocks": 5991, "contributor": 12130, "california": 2662, "granny": 19794, "servicing": 26804, "emerge": 12636, "##fer": 7512, "usd": 13751, "lisa": 7059, "registry": 15584, "##shida": 25541, "1831": 10937, "carr": 12385, "fished": 26281, "[unused254]": 259, "176": 18561, "stamps": 12133, "maddox": 22730, "malta": 9933, "thrown": 6908, "curling": 11599, "gemini": 21424, "certainty": 15855, "##hari": 18428, "##arina": 27943, "codes": 9537, "##\u1d2e": 30027, "[unused417]": 422, "##il": 4014, "helpless": 13346, "attempt": 3535, "[unused112]": 117, "roundabout": 22831, "##urbed": 29595, "inexperienced": 26252, "screens": 12117, "freedoms": 22467, "\u093f": 1341, "freak": 11576, "[unused191]": 196, "\u1174": 1482, "aviation": 5734, "##\u0996": 29890, "whitman": 21311, "capital": 3007, "factual": 25854, "veterinary": 15651, "docking": 25776, "fergus": 21023, "damaged": 5591, "tolerant": 23691, "##jana": 18803, "suspects": 13172, "##xt": 18413, "[unused173]": 178, "ursula": 20449, "celtics": 23279, "##?": 29632, "##lor": 10626, "dominant": 7444, "safeguard": 28805, "339": 28977, "biologist": 21477, "incoming": 14932, "##opus": 24676, "##ies": 3111, "d": 1040, "fidelity": 22625, "##\u301c": 30171, "vichy": 29177, "bertram": 27515, "forest": 3224, "horne": 24084, "ida": 16096, "yo": 10930, "predator": 15267, "##eche": 27635, "##zie": 14272, "shaw": 8233, "harmonies": 28594, "141": 15471, "varieties": 9903, "\u00a31": 14534, "incredible": 9788, "spend": 5247, "morrow": 19084, "1830": 9500, "##ocytes": 28788, "leaders": 4177, "##while": 19927, "connections": 7264, "##ador": 26467, "brackets": 19719, "exercising": 28428, "rank": 4635, "ruins": 8435, "mediation": 26435, "##lates": 26786, "burma": 11050, "parcel": 20463, "ashok": 28916, "louisa": 15731, "##kowski": 15449, "##mento": 23065, "sealing": 23038, "coloured": 11401, "\u8c9d": 1952, "##mpt": 27718, "example": 2742, "uniforms": 11408, "##led": 3709, "glowed": 16497, "papacy": 25097, "dal": 17488, "receiver": 8393, "commanders": 11437, "va": 12436, "everest": 23914, "consideration": 9584, "microsoft": 7513, "##\u2076": 30075, "vince": 12159, "\u300d": 1642, "##nted": 14706, "mala": 28935, "plaza": 8232, "[unused297]": 302, "majesty": 9995, "exchanges": 15800, "salvage": 18340, "humming": 20364, "##cast": 10526, "over": 2058, "paints": 23262, "##bolic": 18647, "##borough": 10235, "1910": 4976, "balance": 5703, "bohemian": 18063, "cadets": 15724, "[unused133]": 138, "[unused340]": 345, "fair": 4189, "judo": 19083, "pitt": 15091, "arrival": 5508, "primetime": 18474, "laos": 15786, "anticipation": 11162, "\u4e09": 1741, "stern": 8665, "due": 2349, "eva": 9345, "[unused331]": 336, "vessels": 6470, "\u0433": 1183, "recognition": 5038, "##lts": 21593, "kane": 8472, "discrete": 16246, "hairy": 15892, "raging": 17559, "determination": 9128, "wiring": 27930, "bitch": 7743, "targets": 7889, "appeal": 5574, "1836": 10081, "\u09ac": 1368, "noir": 15587, "melodies": 16106, "##ndi": 16089, "destroyer": 9799, "[unused361]": 366, "nudged": 18666, "[unused260]": 265, "cathy": 18305, "1828": 11517, "##stand": 21515, "components": 6177, "intel": 13420, "weekend": 5353, "tourism": 6813, "##eil": 24359, "discovery": 5456, "sports": 2998, "galicia": 19017, "recorder": 14520, "##pired": 21649, "##cured": 19405, "leaking": 24325, "##29": 24594, "direction": 3257, "[unused646]": 651, "##odle": 26156, "##ps": 4523, "pollen": 22482, "##gu": 12193, "catalan": 13973, "petitions": 24320, "camps": 7958, "whom": 3183, "1912": 4878, "person": 2711, "risked": 22374, "[unused957]": 962, "##yt": 22123, "manual": 6410, "humid": 14178, "pitted": 25895, "census": 2883, "piled": 17835, "##ja": 3900, "archbishop": 6507, "58": 5388, "##orous": 25373, "##ago": 23692, "prominence": 12144, "barker": 12852, "security": 3036, "lecture": 8835, "afternoon": 5027, "1790": 13393, "client": 7396, "seafood": 23621, "asserted": 13647, "mattered": 13836, "flowing": 8577, "##mx": 22984, "jenks": 15119, "camden": 13267, "[unused240]": 245, "poised": 22303, "counters": 24094, "##lastic": 28723, "##las": 8523, "grossing": 18244, "rehearsal": 17887, "thermal": 9829, "passes": 5235, "imaging": 12126, "alec": 9752, "##\u2079": 30078, "116": 12904, "##stock": 14758, "picket": 28972, "offense": 10048, "moons": 23377, "[unused935]": 940, "gaze": 3657, "model": 2944, "bertrand": 20586, "bells": 10118, "##\u21a6": 30116, "bracing": 25919, "shan": 17137, "hopper": 20517, "##tized": 23355, "arrows": 12563, "lankan": 16159, "midtown": 27219, "annum": 28907, "##anu": 24076, "##ably": 8231, "##\u2089": 30085, "metal": 3384, "grounded": 16764, "sin": 8254, "##\u2026": 30064, "immensely": 24256, "simplest": 21304, "upward": 10745, "skill": 8066, "tail": 5725, "immune": 11311, "float": 14257, "graz": 26918, "[unused358]": 363, "mini": 7163, "##cide": 27082, "acquitted": 18538, "cs": 20116, "curtain": 11002, "peanut": 21443, "ken": 6358, "[unused611]": 616, "period": 2558, "spectroscopy": 25458, "classics": 10002, "jocelyn": 23786, "scots": 12196, "unesco": 12239, "hardwood": 23165, "jang": 23769, "[unused345]": 350, "commonplace": 27550, "scorpion": 22015, "moist": 11052, "ever": 2412, "instructor": 9450, "liz": 9056, "##ogenic": 24278, "sis": 24761, "##ault": 23505, "##gly": 25643, "\u0e40": 1423, "\u5c0f": 1829, "##dilly": 28832, "[unused884]": 889, "wore": 5078, "chaos": 8488, "explode": 15044, "postgraduate": 15438, "nad": 23233, "green": 2665, "##ere": 7869, "staff": 3095, "explicitly": 12045, "trap": 8132, "##\u0926": 29861, "macon": 20025, "ousted": 28368, "firm": 3813, "dictated": 23826, "tank": 4951, "ve": 2310, "##verance": 21998, "centimetres": 13935, "##mple": 23344, "frequented": 24832, "rapids": 12775, "riot": 11421, "\u00a4": 1070, "scouts": 10158, "##\u06d2": 29846, "handkerchief": 23975, "vanish": 25887, "witch": 6965, "glen": 8904, "quality": 3737, "lot": 2843, "pacific": 3534, "##ists": 5130, "##pio": 22071, "avoidance": 24685, "vain": 15784, "blitz": 22312, "carleton": 22273, "schleswig": 21173, "vr": 27830, "illegally": 17800, "vegas": 7136, "##\u00fe": 29670, "cavaliers": 25096, "portal": 9445, "panted": 28149, "pianos": 27864, "'": 1005, "indicator": 17245, "[unused684]": 689, "weights": 15871, "\u30b7": 1706, "nearer": 20388, "erected": 7019, "mabel": 19486, "fucking": 8239, "##orth": 28610, "[unused135]": 140, "bayern": 21350, "##yler": 20853, "wheelchair": 13204, "ce": 8292, "##hein": 26496, "##60": 16086, "broadly": 13644, "mandatory": 10915, "##eca": 19281, "raided": 18784, "shaking": 5513, "cheat": 21910, "activism": 16841, "mcguire": 23872, "rational": 11581, "indochina": 27053, "##xon": 22500, "63": 6191, "surprises": 20096, "suspicion": 10928, "depicts": 11230, "distal": 29333, "ke": 17710, "mozart": 13177, "lights": 4597, "registration": 8819, "enthusiasm": 12024, "167": 16785, "##ory": 10253, "##ove": 21818, "heinrich": 10952, "manuel": 7762, "outgoing": 22011, "##strel": 26877, "beaufort": 23622, "##nsky": 25655, "##nce": 5897, "bud": 13007, "[unused410]": 415, "elegant": 11552, "tastes": 16958, "conan": 16608, "analytics": 25095, "hugging": 17662, "simulations": 24710, "##eki": 26576, "\u8cb4": 1953, "whatever": 3649, "##xide": 19491, "louisville": 11577, "bouts": 23666, "iqbal": 28111, "merits": 22617, "denounced": 17787, "dissent": 24116, "africans": 18076, "sofia": 8755, "component": 6922, "post": 2695, "zion": 19999, "thinkers": 24762, "cooks": 26929, "##ali": 11475, "jeep": 14007, "collided": 17745, "\u20b9": 1576, "##ack": 8684, "##redo": 23417, "##\u90fd": 30487, "##gens": 21230, "cities": 3655, "let": 2292, "maxi": 21510, "repay": 24565, "jillian": 27286, "tolerance": 13986, "sweetly": 22557, "##hering": 22658, "##bus": 8286, "liberal": 4314, "##olis": 20872, "bus": 3902, "anatolia": 23747, "epidemic": 16311, "interests": 5426, "long": 2146, "reporting": 7316, "sixteen": 7032, "525": 25621, "sandra": 12834, "volta": 26089, "21st": 7398, "imam": 17189, "underwater": 11564, "word": 2773, "\u662d": 1868, "##\u65b9": 30389, "donaldson": 23164, "undo": 25672, "wasted": 13842, "school": 2082, "pray": 11839, "\u0989": 1350, "##jm": 24703, "tying": 15233, "wants": 4122, "##listic": 27348, "confirmation": 13964, "corporations": 11578, "hotel": 3309, "ymca": 26866, "[unused618]": 623, "senior": 3026, "##\u5b87": 30345, "nigeria": 7387, "##vao": 24682, "hunger": 9012, "hemingway": 27299, "largest": 2922, "fiscal": 10807, "informing": 21672, "increasing": 4852, "this": 2023, "##ean": 11219, "109": 11518, "festivals": 7519, "\u09a1": 1360, "##nsis": 11745, "##ocating": 27483, "illinois": 4307, "fleets": 25515, "may": 2089, "[unused917]": 922, "dodgers": 13391, "worcester": 12539, "##\u0648": 29836, "1851": 8792, "adviser": 11747, "paws": 24392, "heats": 18559, "enzyme": 9007, "nervously": 12531, "##\u0baa": 29924, "garage": 7381, "##bedo": 28759, "brenda": 15507, "restless": 15035, "grab": 6723, "##rated": 9250, "hilton": 15481, "panting": 15601, "policeman": 14460, "teasing": 12216, "info": 18558, "trait": 18275, "warrington": 23051, "\u6e05": 1903, "brunette": 27261, "richer": 26108, "##usions": 22016, "venues": 9356, "exploded": 9913, "smuggling": 19535, "##\u02bb": 29711, "xml": 20950, "contestants": 10584, "historians": 7862, "architecture": 4294, "might": 2453, "augmented": 19335, "voluntarily": 17912, "pendant": 23152, "ev": 23408, "goods": 5350, "cw": 19296, "involuntary": 26097, "inc": 4297, "keystone": 22271, "pulse": 8187, "warnings": 16234, "fisted": 28273, "[unused373]": 378, "##kas": 13716, "firearm": 23646, "rush": 5481, "muzzle": 17750, "threshold": 11207, "##sa": 3736, "lehigh": 23241, "batting": 9640, "carmen": 11425, "##itha": 26054, "methyl": 25003, "permanent": 4568, "newcomer": 16866, "indiana": 5242, "[unused286]": 291, "countryside": 10833, "transient": 25354, "competent": 17824, "consist": 8676, "\u0f56": 1431, "arsenic": 29596, "rescued": 10148, "luxury": 9542, "suspiciously": 21501, "alike": 11455, "unto": 19662, "##piece": 11198, "##hedron": 26440, "##zin": 17168, "shouts": 15701, "hu": 15876, "nobel": 10501, "processing": 6364, "glint": 25263, "taking": 2635, "distinct": 5664, "inmate": 24467, "1980": 3150, "samba": 29086, "1881": 7005, "compton": 18592, "##\u52a0": 30305, "philanthropy": 29291, "disturbed": 12491, "renault": 14605, "[unused716]": 721, "##omy": 16940, "ton": 10228, "##\u5fc3": 30375, "multimedia": 14959, "##\u0630": 29822, "##opers": 27342, "##vron": 28588, "figure": 3275, "##ville": 3077, "##sling": 28886, "dig": 10667, "interceptions": 18387, "thereby": 8558, "relativity": 20805, "battleship": 17224, "##\uff0e": 30517, "[unused857]": 862, "addressed": 8280, "cervical": 28711, "downstream": 13248, "##b": 2497, "psychiatric": 13691, "special": 2569, "variously": 17611, "dagger": 10794, "cigarette": 9907, "assassinated": 16370, "##skaya": 23070, "ulysses": 22784, "mon": 12256, "peru": 7304, "sinclair": 11881, "220": 10545, "[unused918]": 923, "##\u1d35": 30029, "durable": 25634, "philanthropic": 25321, "##gy": 6292, "##ski": 5488, "##aks": 29243, "causeway": 23336, "delicious": 12090, "\u767a": 1914, "goodness": 15003, "##\u5916": 30335, "delivers": 18058, "consulate": 19972, "margarita": 24570, "##rove": 17597, "lakeside": 28701, "diamond": 6323, "##uba": 19761, "serbian": 6514, "dna": 6064, "goodwin": 19928, "##rance": 21621, "##vez": 26132, "barrie": 24953, "steam": 5492, "##\u305f": 30187, "guillaume": 20061, "##ao": 7113, "via": 3081, "macbeth": 25182, "siren": 19558, "[unused533]": 538, "[unused387]": 392, "metz": 24424, "nedra": 28240, "kamen": 22099, "##coll": 26895, "##gh": 5603, "strand": 11226, "condition": 4650, "##ril": 15928, "heraldic": 28867, "range": 2846, "council": 2473, "contested": 7259, "##al": 2389, "##awa": 10830, "martinique": 29365, "betrayal": 14583, "uefa": 6663, "##ending": 18537, "blackmail": 25044, "bureau": 4879, "stitches": 25343, "##off": 7245, "regulation": 7816, "instincts": 16160, "breaths": 12938, "bach": 10384, "brush": 8248, "\u7fa9": 1936, "##ined": 21280, "jonny": 26937, "margaret": 5545, "272": 24231, "1962": 3705, "##hunter": 25629, "prophecy": 14951, "uncertain": 9662, "kindergarten": 11793, "sudanese": 25603, "serge": 21747, "flash": 5956, "glover": 20012, "ashe": 13402, "grafton": 28680, "kincaid": 24510, "ankara": 20312, "delicate": 10059, "gulf": 6084, "mcintosh": 29052, "montagu": 26241, "waters": 5380, "##fighting": 22158, "molten": 23548, "ye": 6300, "##\u043a": 23925, "ceylon": 16447, "instantly": 6880, "\u539f": 1787, "crossings": 20975, "jameson": 22324, "but": 2021, "allow": 3499, "fra": 25312, "lions": 7212, "liquids": 26820, "papa": 13008, "whose": 3005, "\u30af": 1702, "1745": 21809, "castile": 15656, "gigantic": 20193, "##ically": 15004, "##ians": 7066, "medallion": 22541, "200": 3263, "modernized": 27140, "##hardt": 13778, "##aurus": 17342, "bee": 10506, "brewery": 12161, "bravo": 17562, "bulldogs": 15120, "modeling": 11643, "temporal": 15850, "casting": 9179, "definitely": 5791, "\u1d50": 1502, "robin": 5863, "\u0d9a": 1403, "##dman": 21804, "##sport": 20205, "creep": 19815, "interrupt": 17938, "anya": 21728, "condemned": 10033, "depictions": 20818, "notion": 9366, "release": 2713, "administratively": 23710, "solution": 5576, "religions": 11822, "##itical": 26116, "putin": 22072, "torque": 15894, "spray": 12509, "##zone": 15975, "signs": 5751, "##\u25aa": 30145, "columnist": 13317, "treatise": 15326, "heirs": 15891, "##01": 24096, "stormy": 24166, "[unused938]": 943, "generous": 12382, "partnering": 27001, "nah": 20976, "afterlife": 25115, "where": 2073, "chang": 11132, "funny": 6057, "journals": 9263, "confession": 12633, "##pped": 11469, "tn": 28286, "##mute": 26746, "earned": 3687, "\u03b9": 1163, "milling": 22491, "witches": 12566, "##45": 19961, "clarity": 15563, "botany": 17018, "onto": 3031, "##|": 29641, "##43": 23777, "315": 22904, "##ens": 6132, "surrounded": 5129, "horned": 26808, "lecturer": 9162, "[unused181]": 186, "persist": 29486, "filipino": 10275, "interaction": 8290, "opponent": 7116, "blossom": 20593, "guidelines": 11594, "##vyn": 23487, "bel": 19337, "microscopy": 29105, "shorter": 7820, "electronic": 4816, "##chfield": 22693, "realm": 8391, "enduring": 16762, "crisp": 15594, "drawings": 9254, "constitute": 12346, "##foot": 13064, "genealogical": 29606, "ferdinand": 9684, "freiburg": 22871, "1900s": 16430, "##\u0446": 29751, "sw": 25430, "accordingly": 11914, "infections": 15245, "##aa": 11057, "blocking": 10851, "ironically": 18527, "loren": 28779, "lynch": 11404, "##rang": 24388, "shrieked": 22383, "battling": 17773, "studios": 4835, "grandmaster": 27101, "##urity": 25137, "##7th": 27506, "congregations": 16850, "projects": 3934, "cholera": 25916, "prostitute": 19215, "speeches": 13867, "##\u0621": 29815, "##hor": 16368, "##rnet": 26573, "##hammer": 19742, "##of": 11253, "mp": 6131, "novella": 20674, "tbs": 29584, "blogger": 28205, "\u0272": 1123, "armand": 20371, "commemorated": 19131, "restructuring": 18322, "haryana": 23261, "regimental": 17604, "ra": 10958, "[unused81]": 82, "crossroads": 16760, "matched": 10349, "eldest": 7310, "muscle": 6740, "dominates": 29532, "yielding": 21336, "##dda": 25062, "gunners": 29000, "[unused130]": 135, "each": 2169, "gaul": 26522, "juan": 5348, "toward": 2646, "\u4ec1": 1758, "##25": 17788, "##urance": 25863, "47th": 28243, "focused": 4208, "trusted": 9480, "##ges": 8449, "##\u2228": 30130, "[unused978]": 983, "decor": 25545, "firearms": 13780, "godfrey": 18238, "\u266f": 1628, "[unused187]": 192, "wince": 29585, "spite": 8741, "claws": 10702, "interfaces": 19706, "\u116e": 1478, "decree": 10037, "throat": 3759, "\u201d": 1524, "\u5409": 1793, "[unused480]": 485, "siena": 23754, "jc": 29175, "##don": 5280, "assemble": 21365, "##umen": 27417, "byu": 23471, "##typic": 23186, "amounted": 18779, "[unused107]": 112, "##rew": 15603, "[unused482]": 487, "astros": 22058, "advocates": 13010, "dc": 5887, "neil": 6606, "##ched": 7690, "theologians": 29013, "incorporation": 16935, "cunning": 23626, "eastwood": 24201, "ik": 20912, "oxfordshire": 20124, "fights": 9590, "betrayed": 12056, "detectives": 18145, "distracted": 11116, "related": 3141, "\u0ba4": 1385, "comparisons": 18539, "hypothesis": 10744, "\u201e": 1525, "poisoned": 17672, "##\u6b63": 30414, "##be": 4783, "##llen": 12179, "mcmillan": 27436, "auspices": 20153, "120": 6036, "nothing": 2498, "theatre": 3004, "cooperate": 17654, "##rde": 25547, "engine": 3194, "combining": 11566, "explains": 7607, "professor": 2934, "revenue": 6599, "##one": 5643, "works": 2573, "lark": 23404, "caesar": 11604, "clasped": 16763, "patriot": 16419, "civilians": 9272, "sizes": 10826, "yugoslavia": 8936, "##tom": 20389, "invitational": 20129, "prey": 8336, "agnes": 11166, "##otic": 20214, "ios": 16380, "pd": 22851, "facilities": 4128, "##ados": 28118, "forgetting": 17693, "speaks": 8847, "\u307f": 1678, "##egan": 20307, "outside": 2648, "1629": 27882, "inverted": 20037, "bates": 11205, "phones": 11640, "tasting": 18767, "months": 2706, "##ghton": 21763, "erebidae": 25875, "\uff0d": 1990, "##sari": 22740, "brink": 20911, "steal": 8954, "gunter": 27834, "granting": 15080, "characterization": 23191, "spd": 23772, "\u02b3": 1142, "abuses": 21078, "stint": 12116, "phases": 12335, "groundbreaking": 23222, "mutant": 15527, "ze": 27838, "viking": 12886, "renee": 17400, "unchanged": 15704, "orchestral": 13533, "bae": 25818, "bikes": 18105, "determined": 4340, "beard": 10154, "independent": 2981, "indifference": 25920, "62": 5786, "designer": 5859, "##firm": 27972, "fae": 17282, "small": 2235, "outpost": 21080, "1880s": 12751, "accused": 5496, "boxed": 27554, "precinct": 18761, "\u3088": 1684, "smashwords": 25151, "pastures": 24813, "exercised": 17747, "goalscorer": 28602, "\u5317": 1781, "##\u30d2": 30245, "[unused986]": 991, "sven": 21313, "##ffi": 26989, "threads": 16457, "\u694a": 1883, "handler": 28213, "greeks": 13176, "greene": 11006, "terminus": 7342, "##iko": 12676, "##lis": 6856, "disappearing": 14489, "bar": 3347, "##cies": 9243, "asa": 17306, "bound": 5391, "weeping": 19750, "##clops": 28659, "tran": 25283, "aziz": 21196, "patricia": 10717, "fulfilled": 16829, "homework": 19453, "halftime": 22589, "katz": 20729, "ones": 3924, "stimulated": 25194, "[unused164]": 169, "paterson": 19162, "vendor": 21431, "typically": 4050, "shrimp": 20130, "323": 25392, "##main": 24238, "quezon": 26564, "##4th": 26724, "bed": 2793, "violinist": 16609, "##lco": 22499, "evie": 26400, "meyer": 11527, "##rrado": 27933, "##ape": 24065, "##roud": 21332, "baroness": 21479, "indies": 9429, "lied": 9828, "marriage": 3510, "seattle": 5862, "##ores": 16610, "carp": 29267, "guerrero": 16938, "profound": 13769, "##ort": 11589, "correspondent": 11370, "crumbling": 24827, "mlb": 10901, "tapped": 10410, "purdue": 19749, "twitching": 25402, "##mare": 24376, "[unused560]": 565, "video": 2678, "making": 2437, "rounded": 8352, "basal": 15191, "generate": 9699, "attire": 20426, "##bane": 27543, "patient": 5776, "room": 2282, "transcribed": 26223, "stefano": 19618, "rodriguez": 9172, "asleep": 6680, "hand": 2192, "##ades": 18673, "##osi": 20049, "supposed": 4011, "symbols": 9255, "clerk": 7805, "brodie": 27379, "ellie": 10707, "william": 2520, "violently": 14196, "##rama": 14672, "ransom": 16540, "turbine": 14027, "polite": 13205, "opinion": 5448, "botanic": 27761, "stryker": 25429, "bentley": 15988, "fueled": 17999, "capturing": 11847, "jia": 25871, "tessa": 13167, "twist": 9792, "devlin": 24389, "icy": 13580, "##\u6771": 30405, "pest": 20739, "bumps": 18548, "disappear": 10436, "fifth": 3587, "jett": 22962, "filmed": 6361, "hiram": 27410, "sevilla": 29363, "##dling": 14423, "##yx": 17275, "1914": 4554, "cars": 3765, "rules": 3513, "scales": 9539, "saliva": 26308, "##\u304b": 30177, "##isen": 28992, "##\u4fe1": 30293, "epsilon": 28038, "##ride": 15637, "militia": 8396, "blinding": 19709, "build": 3857, "sabbath": 19546, "shit": 4485, "rituals": 13549, "[unused763]": 768, "cebu": 23312, "horizon": 9154, "stepping": 9085, "munster": 11348, "gemma": 19073, "##hopper": 27330, "semifinals": 8565, "screwing": 29082, "wage": 11897, "clement": 12223, "[unused128]": 133, "fingernails": 21243, "sponsoring": 29396, "warning": 5432, "##terol": 27833, "grunt": 20696, "##tier": 17579, "diaries": 18707, "\u2021": 1527, "##fighter": 20027, "[unused493]": 498, "reorganisation": 24934, "advance": 5083, "newspaper": 3780, "clips": 15281, "colonists": 15526, "##\u2099": 19110, "projecting": 18398, "forested": 15205, "##ified": 7810, "weaver": 14077, "emily": 6253, "congratulations": 23156, "sheet": 7123, "##ula": 7068, "homme": 26574, "raja": 10164, "hauled": 13161, "feminist": 10469, "censorship": 15657, "snacks": 27962, "pizza": 10733, "1697": 28690, "\u1172": 1480, "##venor": 26806, "manufactured": 7609, "bronx": 14487, "vineyard": 18621, "bark": 11286, "##\u30a4": 30221, "\u795e": 1925, "hurt": 3480, "##\u05e8": 29811, "arrest": 6545, "running": 2770, "echoed": 10187, "academies": 20994, "brighton": 10309, "compared": 4102, "##chule": 20269, "litter": 19070, "thin": 4857, "valentine": 10113, "apartheid": 17862, "lamb": 12559, "variation": 8386, "explanations": 17959, "##ciation": 23247, "##\u3080": 30205, "chelsea": 9295, "given": 2445, "mechanics": 9760, "waterfalls": 24236, "##dm": 22117, "##\u03c3": 29733, "##hof": 14586, "assaults": 22664, "caves": 10614, "enter": 4607, "impressed": 7622, "labyrinth": 24239, "topic": 8476, "twigs": 27964, "sadly": 13718, "cape": 4880, "et": 3802, "catherine": 6615, "horn": 7109, "merton": 28169, "##\u533a": 30308, "liang": 16982, "resultant": 28573, "pipe": 8667, "brendan": 15039, "colleges": 6667, "imagining": 16603, "frequencies": 13139, "penang": 21812, "revolution": 4329, "alarmed": 19260, "70th": 26934, "opinions": 10740, "##ogo": 22844, "##ppel": 27877, "[unused741]": 746, "ella": 11713, "garbage": 13044, "garden": 3871, "jar": 15723, "landslide": 20148, "quakers": 28301, "refueling": 23026, "sentence": 6251, "turks": 12896, "[unused415]": 420, "##bius": 17028, "##\u1d52": 30039, "worcestershire": 20218, "manipulating": 26242, "##ecin": 28191, "jun": 12022, "reluctance": 21662, "[unused244]": 249, "##\u0436": 29743, "razor": 15082, "##ament": 24996, "##yn": 6038, "1766": 21410, "came": 2234, "##ators": 18926, "zinc": 15813, "airbus": 20901, "erection": 13760, "##mill": 19912, "astrid": 27376, "bye": 9061, "phd": 8065, "viceroy": 19007, "aspen": 18567, "gear": 6718, "refugee": 13141, "\u00a3": 1069, "beer": 5404, "impromptu": 29213, "##folia": 21710, "##iver": 16402, "styled": 13650, "stroll": 27244, "##kawa": 13069, "55": 4583, "##izer": 17629, "zach": 12397, "feasibility": 24010, "paler": 24489, "##herton": 27949, "[unused610]": 615, "goa": 15244, "bon": 14753, "mcconnell": 28514, "healthy": 7965, "##born": 10280, "airing": 10499, "##going": 26966, "##19": 16147, "##mering": 27851, "infancy": 22813, "notes": 3964, "peer": 8152, "traditional": 3151, "voltage": 10004, "halloween": 14414, "224": 19711, "strata": 22913, "telangana": 23764, "czech": 5569, "softened": 16573, "##nton": 15104, "seminole": 28909, "##fin": 16294, "folk": 5154, "parchment": 22433, "##enity": 20693, "##amp": 16613, "easing": 24070, "##\u05d3": 29791, "[unused793]": 798, "resumed": 7943, "##rzburg": 29136, "parks": 6328, "sensed": 10596, "rhyme": 20622, "records": 2636, "##\u0638": 29829, "##wg": 27767, "guilt": 8056, "##bilities": 14680, "\u30fb": 1738, "agree": 5993, "exhibited": 8176, "terrorist": 9452, "introducing": 10449, "guiana": 23568, "tragic": 13800, "initials": 20381, "\u8857": 1946, "vie": 20098, "##rdan": 26992, "##ane": 7231, "prompt": 25732, "uncommon": 13191, "injured": 5229, "referring": 7727, "\u05d3": 1244, "##athlon": 17563, "\u56d7": 1797, "boomed": 28908, "anger": 4963, "touches": 12817, "[unused427]": 432, "##mount": 20048, "##rkin": 26891, "##\u30e2": 30253, "recruiting": 14357, "delgado": 26532, "moffat": 28528, "perched": 17335, "percival": 27832, "##tonic": 25009, "ford": 4811, "flies": 10029, "##fahan": 28975, "batsman": 13953, "##amine": 19915, "dobson": 27679, "allah": 16455, "commission": 3222, "contracting": 21012, "##stis": 29472, "multitude": 20889, "##\u0192": 29675, "thru": 27046, "toes": 10393, "shaggy": 25741, "##-": 29624, "##ocene": 25793, "injuries": 6441, "unlock": 19829, "soared": 29127, "##ging": 4726, "cane": 11942, "##sund": 25168, "##ya": 3148, "attends": 23933, "##kie": 11602, "atkinson": 18646, "tuned": 15757, "##tagram": 23091, "##ups": 22264, "assaulted": 17536, "impressive": 8052, "##\u0e25": 29954, "##fur": 27942, "##\u2087": 30083, "lowe": 14086, "mortimer": 17416, "calves": 28023, "revisited": 24354, "twelve": 4376, "inferior": 14092, "##brush": 18623, "boredom": 29556, "sought": 4912, "windmill": 25367, "vector": 9207, "settings": 10906, "##culture": 14561, "neighbourhoods": 27535, "jew": 16522, "capitalist": 19640, "gideon": 12137, "opposing": 10078, "poisoning": 16149, "denial": 14920, "materialized": 27075, "comply": 14037, "federation": 4657, "[unused30]": 31, "four": 2176, "stanis\u0142aw": 26133, "##wives": 23744, "den": 7939, "ultimate": 7209, "##\u0909": 29849, "bala": 21451, "mcgee": 22034, "##ingen": 15542, "##drop": 25711, "booking": 21725, "fremantle": 20358, "miracle": 9727, "satellite": 5871, "individually": 14258, "##aja": 22734, "##her": 5886, "parkway": 12602, "turf": 14585, "##book": 8654, "[unused279]": 284, "scene": 3496, "\u306e": 1671, "shifters": 21537, "1900": 5141, "forbes": 10822, "lived": 2973, "pace": 6393, "\u0279": 1125, "squinting": 29156, "remnant": 19614, "plato": 18858, "laughing": 5870, "niche": 18111, "atom": 13787, "hip": 5099, "##\u00aa": 29653, "##\u03b2": 29720, "##ginal": 24965, "##ulio": 24825, "periodicals": 21855, "aiming": 13659, "finalists": 13527, "missy": 25019, "restaurant": 4825, "##grave": 12830, "toxicity": 22423, "noticeable": 17725, "##cape": 19464, "pear": 28253, "tombstone": 26671, "##chemical": 15869, "##oshi": 24303, "##mata": 21022, "9": 1023, "dharma": 20669, "##ce": 3401, "kv": 24888, "##ept": 23606, "horton": 18469, "n": 1050, "##mus": 7606, "vans": 21994, "scouting": 14299, "jurist": 22757, "their": 2037, "flown": 10583, "##eet": 15558, "whistling": 24350, "applicant": 23761, "press": 2811, "##tore": 19277, "##tland": 19270, "distinguish": 10782, "upper": 3356, "worshipped": 22876, "knot": 12226, "partition": 13571, "albanian": 9408, "##lane": 20644, "101": 7886, "[unused562]": 567, "##thy": 16921, "allen": 5297, "stunned": 9860, "##bay": 15907, "##ngen": 25997, "scribe": 27789, "improvement": 7620, "tucking": 25056, "love": 2293, "fingertips": 12206, "##sbury": 18065, "envoy": 19918, "840": 28122, "244": 24194, "nope": 16780, "prescott": 20719, "treasury": 9837, "##\u30cf": 30244, "[unused710]": 715, "yankee": 17652, "gearbox": 22227, "##\u208e": 30088, "##graph": 14413, "lettering": 25782, "announcements": 25674, "jorge": 10853, "##erin": 23282, "logic": 7961, "motor": 5013, "patriotic": 14314, "walton": 14290, "domination": 17882, "\u063a": 1289, "##dier": 24612, "achieve": 6162, "##ophone": 25232, "provision": 9347, "curl": 15390, "eats": 20323, "[unused316]": 321, "690": 28066, "##rac": 22648, "caroline": 7981, "transylvania": 20816, "\u2502": 1616, "##ency": 11916, "fed": 7349, "ri": 15544, "sulfur": 17864, "seating": 10747, "busted": 23142, "##\u539f": 30313, "almost": 2471, "valkyrie": 26696, "insanity": 19272, "rudder": 24049, "laurie": 16450, "constantin": 27991, "engaged": 5117, "lifting": 8783, "\u3051": 1654, "dysfunction": 28466, "piracy": 24386, "animation": 7284, "341": 28358, "picture": 3861, "##\u300b": 30166, "developmental": 13908, "additionally": 5678, "professorship": 22661, "\u0259": 1114, "pee": 21392, "ty": 5939, "yell": 14315, "croatian": 7963, "\u1d2c": 1490, "dieter": 27976, "general": 2236, "playful": 18378, "iaaf": 21259, "[unused594]": 599, "##kti": 22462, "[unused731]": 736, "cloudy": 24706, "lenin": 17497, "longevity": 26906, "1605": 28202, "sabine": 18578, "\u044b": 1206, "overshadowed": 28604, "timeline": 17060, "inscription": 9315, "florida": 3516, "proceedings": 8931, "\u2075": 1539, "##ray": 9447, "\u1d62": 1507, "bench": 6847, "messing": 22308, "##mori": 24610, "##dora": 24562, "##pr": 18098, "reviewers": 15814, "cautiously": 15151, "##havan": 24652, "##rrie": 22155, "carved": 7844, "detecting": 25952, "director": 2472, "doorstep": 26581, "spaniards": 20999, "##vs": 15088, "as": 2004, "##gna": 16989, "shadows": 6281, "providers": 11670, "##ct": 6593, "[unused977]": 982, "encircled": 25759, "cn": 27166, "fjord": 26158, "[unused458]": 463, "accompany": 12673, "psycho": 18224, "decreasing": 16922, "tango": 17609, "##cturing": 19159, "johannesburg": 15976, "reinstated": 18671, "rings": 7635, "1852": 8784, "seasoned": 28223, "playstation": 9160, "akron": 22735, "packaging": 14793, "mortality": 13356, "##elman": 23830, "[unused315]": 320, "##lch": 29358, "334": 29562, "delays": 14350, "reared": 23295, "tribune": 10969, "1695": 29140, "yucatan": 28631, "\u09aa": 1367, "sean": 5977, "ignorant": 21591, "politicians": 8801, "archaeological": 7611, "keyboardist": 20173, "medicines": 20233, "pakistan": 4501, "portable": 12109, "ninja": 14104, "rainforest": 18951, "chateau": 11874, "games": 2399, "illustrates": 24899, "##edge": 24225, "bedroom": 5010, "restored": 5854, "bulge": 23708, "hymn": 14825, "samoa": 15075, "experimental": 6388, "##mbs": 29232, "apology": 12480, "shu": 18454, "horribly": 27762, "hector": 10590, "##tana": 20496, "badger": 24186, "##db": 18939, "myles": 27056, "smeared": 25400, "wessex": 27886, "colombo": 16224, "million": 2454, "##tur": 20689, "outlets": 11730, "sorry": 3374, "glendale": 27649, "squirrel": 18197, "[unused671]": 676, "caitlin": 27555, "rockets": 12496, "ahead": 3805, "churning": 26765, "warmer": 16676, "quarrel": 26260, "##rra": 11335, "socialists": 21633, "\u1110": 1467, "weight": 3635, "##istan": 23137, "ezio": 23043, "complaint": 12087, "astronomical": 13674, "ebook": 26885, "fours": 23817, "ceremonial": 12961, "selections": 16310, "concentrated": 8279, "##tain": 18249, "pedersen": 27409, "bestowed": 17398, "##phone": 9864, "inner": 5110, "##belle": 25766, "##erated": 16848, "mural": 15533, "##khan": 26370, "1888": 6690, "[unused413]": 418, "##pping": 14853, "##\u0bae": 29925, "emil": 16243, "[unused752]": 757, "screened": 12238, "ultimatum": 29227, "discussions": 10287, "ambiguity": 27637, "magnus": 10045, "##jord": 24876, "##\u306b": 30194, "basins": 22739, "complementary": 21053, "sadler": 29012, "##lver": 26229, "manages": 9020, "peterson": 12001, "\u5fd7": 1851, "##3": 2509, "##nga": 13807, "ranch": 8086, "##rail": 15118, "aircraft": 2948, "neighbor": 11429, "bollywood": 16046, "p": 1052, "champaign": 28843, "canon": 9330, "ligue": 18374, "fry": 14744, "##itte": 27100, "nassau": 14646, "scarred": 21985, "pods": 26723, "americana": 25988, "tended": 11121, "##\u51fa": 30300, "ring": 3614, "##\u2208": 30124, "instinctively": 16607, "[unused878]": 883, "415": 24690, "quarters": 7728, "paralyzed": 22348, "trump": 8398, "##hyl": 29598, "contract": 3206, "aliens": 12114, "missing": 4394, "partridge": 26079, "rhythmic": 14797, "shocking": 16880, "albums": 4042, "kuala": 15490, "##gia": 10440, "mania": 29310, "marta": 18950, "reactive": 22643, "sham": 25850, "chests": 28717, "quick": 4248, "proliferation": 20250, "triggering": 29170, "##otide": 26601, "##mar": 7849, "visuals": 26749, "talmud": 24380, "[unused681]": 686, "descriptions": 13271, "##bson": 27355, "[unused231]": 236, "swat": 25414, "blood": 2668, "negatively": 19762, "1692": 28622, "magnolia": 24659, "becky": 14407, "steve": 3889, "swarm": 21708, "kyushu": 25885, "debate": 5981, "skeletal": 20415, "##cate": 16280, "flinch": 23224, "archdeacon": 21742, "hyde": 11804, "vanity": 18736, "[unused393]": 398, "reef": 12664, "##ctic": 13306, "##ele": 12260, "mysteries": 15572, "##sville": 9337, "calmly": 12885, "skimmed": 28862, "andhra": 14065, "reign": 5853, "aquatics": 26649, "shoulder": 3244, "43rd": 25747, "##ime": 14428, "prosecuted": 21651, "##\u03b9\u03b1": 27432, "restrict": 21573, "##\u0ba8": 29922, "aaron": 7158, "descendants": 8481, "occurred": 4158, "##\u00a9": 29652, "pens": 25636, "bakery": 18112, "tt": 23746, "##ab": 7875, "financing": 12135, "bomber": 9472, "microphone": 15545, "pitchfork": 22355, "##nh": 25311, "rihanna": 25439, "280": 13427, "[unused678]": 683, "billions": 25501, "cambridge": 4729, "operator": 6872, "petroleum": 11540, "nights": 6385, "lesson": 10800, "confronts": 17628, "##\"": 29613, "##\u56db": 30324, "##ou": 7140, "retribution": 25928, "withdrew": 6780, "thrusts": 25842, "pitcher": 8070, "sandwich": 11642, "membranes": 24972, "##iness": 9961, "mess": 6752, "absurd": 18691, "sited": 28603, "##\u0127": 29672, "##uke": 15851, "tunic": 23002, "jagged": 18187, "\u05da": 1251, "organized": 4114, "rampant": 25883, "ideas": 4784, "create": 3443, "elastic": 21274, "##enting": 26951, "[unused149]": 154, "##\u2ebc": 30159, "porch": 7424, "ronnie": 11688, "chariot": 23507, "\u0e21": 1415, "travers": 29053, "nerves": 10627, "##orio": 27416, "##\u6c0f": 30417, "yusuf": 23495, "majors": 15279, "1856": 8708, "equation": 8522, "##house": 4580, "fatima": 27596, "reserved": 9235, "\u0dba": 1404, "##nail": 25464, "eine": 27665, "rehab": 24497, "periphery": 23275, "pierre": 5578, "gates": 6733, "risky": 19188, "nonfiction": 25753, "##bina": 21114, "darren": 12270, "narrower": 22546, "##\u0289": 29697, "chrysler": 17714, "hardy": 9532, "[unused457]": 462, "airplane": 13297, "bengali": 11267, "defending": 6984, "licked": 11181, "##\u9673": 30498, "bees": 13734, "dunbar": 23034, "boardwalk": 29496, "501": 16202, "fragments": 10341, "##rosis": 29166, "##bag": 16078, "[unused357]": 362, "melody": 8531, "wicked": 10433, "version": 2544, "\u03c3": 1173, "autumn": 7114, "centralized": 22493, "\u0dbd": 1406, "successfully": 5147, "##eft": 29218, "##sef": 20106, "##aire": 14737, "charlemagne": 27257, "##pressed": 19811, "attribute": 17961, "dod": 26489, "gallantry": 22111, "numbered": 8597, "poorer": 27196, "[unused688]": 693, "[unused952]": 957, "contributing": 8020, "\u5f18": 1843, "reid": 9027, "impatiently": 19951, "lauderdale": 23520, "arbitration": 18010, "hamas": 22129, "meath": 26856, "[unused50]": 51, "miranda": 9392, "nationality": 10662, "##ons": 5644, "##anda": 13832, "##ern": 11795, "##itzer": 19253, "crank": 27987, "##\u90e8": 30486, "##\u5289": 30303, "[unused256]": 261, "cousins": 12334, "##\u0456": 29760, "gracie": 19005, "fitch": 26062, "taluka": 29512, "rotating": 13618, "assassinate": 25683, "equity": 10067, "invites": 18675, "ochreous": 23474, "selena": 19166, "##\u7701": 30446, "##ice": 6610, "[unused598]": 603, "ignores": 26663, "navajo": 22440, "##written": 15773, "ogden": 23203, "jail": 7173, "keith": 6766, "adults": 6001, "hazel": 14015, "\u0915": 1315, "katie": 9734, "landowner": 20270, "coyote": 20457, "net": 5658, "nair": 22525, "erwin": 22209, "flung": 14016, "obscene": 27744, "\u4e00": 1740, "cruz": 8096, "veil": 15562, "##\u0564": 29769, "lia": 22393, "[unused659]": 664, "internationals": 27340, "operations": 3136, "outdated": 25963, "conflicting": 19326, "pair": 3940, "philip": 5170, "deposition": 19806, "assessment": 7667, "tia": 27339, "weep": 27874, "streets": 4534, "##\u0e23": 29953, "undertaking": 18457, "gardener": 19785, "default": 12398, "panorama": 23652, "cyclic": 23750, "ventilation": 19536, "37th": 23027, "modifications": 12719, "pry": 29198, "surveillance": 9867, "\u6cd5": 1901, "forestry": 13116, "continuation": 13633, "maori": 12600, "empty": 4064, "harmless": 19741, "zipper": 22082, "timed": 22313, "thickness": 14983, "guantanamo": 23094, "nellie": 25365, "beech": 21760, "magnesium": 24983, "bismarck": 22029, "medals": 6665, "mort": 22294, "oath": 11292, "musical": 3315, "##eley": 22352, "sen": 12411, "##ject": 20614, "collect": 8145, "cynthia": 15809, "spawn": 25645, "spanning": 13912, "smacked": 19203, "reelection": 17648, "##ntine": 26730, "##oven": 25592, "\u79c0": 1928, "\u2122": 1580, "exceed": 13467, "##ulin": 18639, "guadalajara": 22887, "##lt": 7096, "intimate": 10305, "##\u5e7f": 30368, "\u0f58": 1432, "orthodoxy": 26582, "exemplified": 28593, "exclusion": 15945, "##script": 22483, "\u30db": 1722, "reacting": 24868, "shi": 11895, "wright": 6119, "##cion": 10446, "##eson": 21421, "techniques": 5461, "##bel": 8671, "endless": 10866, "soon": 2574, "##cake": 17955, "urine": 17996, "\u30d8": 1721, "clive": 14675, "lou": 10223, "##kei": 29501, "disease": 4295, "underwear": 14236, "rejoined": 14311, "selma": 28112, "diocese": 5801, "royce": 14789, "relying": 18345, "bruno": 10391, "northamptonshire": 21367, "selling": 4855, "##tec": 26557, "##\u056f": 29774, "[unused402]": 407, "neutral": 8699, "sharif": 20351, "##lika": 25421, "##naut": 24619, "##nz": 14191, "hates": 16424, "pratt": 13208, "morphological": 24012, "dirk": 17594, "makers": 11153, "protected": 5123, "backstage": 20212, "mineral": 9754, "hold": 2907, "welded": 29014, "pins": 16300, "##ags": 26454, "felipe": 17095, "prediction": 17547, "stack": 9991, "##kh": 10023, "clawed": 22544, "shawn": 13218, "confinement": 21551, "##nburg": 22642, "gunther": 19384, "buckley": 17898, "white": 2317, "remodeled": 27170, "arts": 2840, "municipal": 4546, "resorts": 16511, "toni": 16525, "growled": 8881, "somme": 25158, "food": 2833, "arya": 26140, "cis": 20199, "minority": 7162, "morley": 20653, "\u305d": 1660, "##fles": 28331, "andrey": 29219, "dorsal": 12759, "sloan": 19024, "##lana": 16695, "tobago": 17247, "gomez": 12791, "##erina": 26052, "ammonia": 25874, "partnered": 12404, "assimilation": 27574, "theodore": 10117, "\u9580": 1968, "claus": 19118, "excused": 28512, "recognizing": 14622, "##rh": 25032, "##dates": 27122, "turkmenistan": 25432, "\u0dc0": 1407, "campo": 22339, "transformations": 21865, "[unused472]": 477, "gold": 2751, "not": 2025, "##athy": 17308, "##box": 8758, "corsica": 27047, "1953": 4052, "leg": 4190, "remotely": 19512, "reported": 2988, "stems": 12402, "plain": 5810, "protesting": 21248, "\u062d": 1276, "produced": 2550, "summons": 24814, "metabolic": 21453, "flag": 5210, "john": 2198, "armour": 12371, "##dre": 16200, "##\u5730": 30328, "\u571f": 1801, "elderly": 9750, "fined": 16981, "stressed": 13233, "already": 2525, "oppressive": 28558, "jonah": 15617, "ned": 12311, "ca": 6187, "fumble": 19576, "springs": 6076, "allan": 8926, "274": 25586, "sachs": 22818, "metropolis": 18236, "satisfy": 13225, "smirk": 15081, "divert": 27345, "##bians": 26376, "sava": 28350, "iq": 26264, "pune": 16920, "\u21c4": 1589, "500": 3156, "kiel": 20963, "[unused80]": 81, "citation": 11091, "snapped": 5941, "editor": 3559, "programs": 3454, "possessive": 22105, "##\u2205": 30121, "fellowships": 27298, "##rter": 19418, "1935": 4437, "##ciency": 29125, "##ntation": 23436, "matrices": 21520, "egyptian": 6811, "method": 4118, "sparsely": 24961, "stipulated": 25729, "keep": 2562, "##ege": 24746, "##nally": 26827, "derek": 7256, "fernando": 9158, "eagles": 8125, "remixed": 17574, "stops": 6762, "wrestler": 10706, "1779": 17616, "balanced": 12042, "\u110e": 1465, "berber": 27514, "afghanistan": 7041, "craving": 26369, "\u306c": 1669, "##wl": 13668, "credits": 6495, "##imated": 20592, "attracting": 15411, "vase": 18781, "##dington": 21504, "00": 4002, "sheikh": 12840, "##\u4e0b": 30269, "tb": 26419, "troubles": 13460, "1724": 26423, "attributes": 12332, "obvious": 5793, "[unused603]": 608, "##logical": 9966, "##\u3053": 30181, "trojan": 23445, "seamen": 28671, "mata": 22640, "unidentified": 20293, "coordinating": 19795, "buddhism": 11388, "gustave": 27973, "ten": 2702, "volkswagen": 18817, "rosen": 21701, "subsistence": 27667, "so": 2061, "heaven": 6014, "beta": 8247, "gustavo": 24801, "mist": 11094, "maximus": 21692, "##dou": 26797, "insignificant": 27018, "stump": 22475, "crowds": 12783, "friendships": 28956, "childhood": 5593, "fairness": 26935, "enforcement": 7285, "owl": 13547, "practically": 8134, "##udence": 29424, "owned": 3079, "possess": 10295, "roth": 12211, "minneapolis": 11334, "remind": 10825, "suffered": 4265, "crate": 27297, "ups": 11139, "advanced": 3935, "lafayette": 14425, "##ines": 10586, "internet": 4274, "save": 3828, "corporation": 3840, "tandem": 18231, "hissed": 11402, "mansfield": 15352, "nurses": 11500, "sadie": 21330, "##ral": 7941, "wall": 2813, "tray": 11851, "norms": 17606, "please": 3531, "stripped": 10040, "publishing": 4640, "##pse": 29251, "opening": 3098, "starboard": 25211, "lexington": 14521, "speeding": 21485, "##ishment": 21808, "chasing": 11777, "towed": 18948, "\u30b9": 1707, "away": 2185, "pulpit": 23134, "literacy": 8433, "stool": 14708, "ingredients": 12760, "##peration": 29487, "##nir": 29339, "applicants": 17362, "lakshmi": 21352, "marquess": 17391, "semi": 4100, "faa": 17032, "clarinet": 12089, "flipping": 18497, "substances": 13978, "quantities": 12450, "hellenic": 23122, "chefs": 27828, "locker": 12625, "##athan": 29246, "furnishings": 23127, "hides": 17382, "circuit": 4984, "included": 2443, "##baum": 14898, "integrating": 22380, "restraint": 19355, "rearview": 28726, "attract": 9958, "humanitarian": 11470, "##\u09a3": 29897, "##\u68ee": 30408, "1550": 26245, "ryan": 4575, "\u00bc": 1091, "##hat": 12707, "typed": 21189, "smithsonian": 15720, "##ysis": 20960, "vaults": 28658, "##\u09a5": 29899, "accidentally": 9554, "accelerate": 23306, "duane": 27319, "craftsman": 26286, "donation": 13445, "ib": 21307, "mbc": 27262, "knights": 7307, "lieutenant": 3812, "hoffman": 15107, "lucille": 28016, "ali": 4862, "originally": 2761, "##cker": 9102, "##rissa": 26571, "uncanny": 28953, "1771": 20708, "##eyer": 20211, "intersect": 29261, "pines": 17527, "##gles": 17125, "[unused934]": 939, "stil": 25931, "\u306d": 1670, "##kus": 22332, "enemy": 4099, "maccabi": 24055, "results": 3463, "treatment": 3949, "applicable": 12711, "silesian": 20453, "demolished": 7002, "digest": 17886, "currency": 9598, "motorway": 13119, "##mism": 26725, "noise": 5005, "racist": 16939, "credit": 4923, "80s": 16002, "toledo": 13163, "peace": 3521, "##ading": 23782, "vicky": 22845, "conway": 14783, "##cina": 28748, "[unused846]": 851, "##tone": 5524, "tna": 20108, "gastropod": 10953, "nearly": 3053, "domed": 29208, "##drum": 21884, "rita": 11620, "##anum": 27975, "\u099c": 1358, "enlarged": 11792, "ferocious": 27863, "acc": 16222, "extant": 12905, "stewart": 5954, "clung": 14752, "clearly": 4415, "ledger": 27106, "##den": 4181, "gibson": 9406, "hornet": 26795, "285": 21777, "resurrection": 15218, "tightened": 8371, "widening": 17973, "lonely": 9479, "jug": 26536, "lutheran": 10034, "freelance": 15919, "violins": 25877, "##iography": 26535, "[unused864]": 869, "##dom": 9527, "grape": 14722, "mx": 25630, "even": 2130, "##tel": 9834, "##ndt": 26379, "[unused105]": 110, "tables": 7251, "\u0459": 1215, "algiers": 22947, "peacock": 18931, "##fl": 10258, "##tine": 10196, "generates": 19421, "ladies": 6456, "##\u27e9": 30156, "increased": 3445, "fbi": 8495, "\u3048": 1649, "instrumentation": 16015, "declared": 4161, "clouded": 26761, "logging": 15899, "restore": 9239, "emerged": 6003, "heller": 25038, "travelled": 7837, "violating": 20084, "impairment": 25172, "meters": 5563, "maria": 3814, "citizens": 4480, "##49": 26224, "##aro": 10464, "sniffed": 18013, "m2": 25525, "clare": 11152, "##acious": 20113, "##hum": 28600, "pre": 3653, "mixture": 8150, "aesthetics": 20749, "properly": 7919, "\u10d8": 1445, "decorate": 29460, "999": 25897, "cove": 11821, "barbie": 22635, "dams": 17278, "##pur": 5311, "pea": 26034, "tun": 27112, "dana": 11271, "##owe": 29385, "afternoons": 24738, "carbon": 6351, "kilkenny": 17131, "##active": 19620, "rebelled": 25183, "##ppa": 13944, "##hore": 16892, "278": 24709, "##nology": 21020, "ballads": 18456, "geological": 9843, "lobster": 27940, "tremor": 27734, "##hima": 16369, "##xi": 9048, "malcolm": 8861, "canteen": 26449, "adult": 4639, "dust": 6497, "recruitment": 15680, "lending": 18435, "##\u30c8": 30240, "\u98a8": 1977, "biochemistry": 22419, "[unused215]": 220, "\u2663": 1624, "confederate": 8055, "volumes": 6702, "bundle": 14012, "[unused407]": 412, "tony": 4116, "scandal": 9446, "sooner": 10076, "walls": 3681, "reconstruction": 8735, "innings": 7202, "splinter": 27546, "briefs": 28760, "ginger": 14580, "verdi": 20580, "locomotive": 8098, "armenians": 20337, "##gible": 18507, "disrupt": 23217, "mathematicians": 29374, "##ire": 7442, "writer": 3213, "tribes": 6946, "approaching": 8455, "ops": 23092, "enraged": 18835, "##day": 10259, "documented": 8832, "198": 20003, "accountable": 26771, "coincidentally": 27542, "dancer": 8033, "displays": 8834, "austro": 16951, "wilcox": 23926, "bobbie": 27731, "irvine": 16272, "bled": 23919, "##arding": 29154, "555": 29541, "weber": 13351, "\u1d56": 1504, "rubber": 8903, "##\u771f": 30447, "familiarity": 24666, "##ocks": 25384, "[unused913]": 918, "breton": 16659, "cabins": 20321, "1642": 24061, "crop": 10416, "regulating": 21575, "runways": 24578, "superhero": 16251, "clarkson": 18648, "hispanic": 6696, "1991": 2889, "tata": 23236, "conscription": 26329, "ronin": 29249, "mainline": 20575, "radiating": 23229, "hadley": 21681, "select": 7276, "\u65e5": 1864, "forefront": 22870, "##dan": 7847, "pilgrims": 17992, "##court": 13421, "273": 25371, "[unused849]": 854, "nocturnal": 23789, "sc": 8040, "seemed": 2790, "\u0dbb": 1405, "spanish": 3009, "broadway": 5934, "hut": 12570, "multicultural": 27135, "underworld": 13607, "actors": 5889, "surveys": 12265, "surged": 18852, "##ssen": 14416, "##\u05d5": 29792, "##shima": 24772, "##gon": 7446, "osborn": 26999, "[unused527]": 532, "shelby": 15294, "reaction": 4668, "artists": 3324, "strikes": 9326, "##ggs": 21314, "philipp": 20765, "they": 2027, "schizophrenia": 23683, "computers": 7588, "1934": 4579, "melting": 13721, "\u9f8d": 1982, "excerpt": 28142, "styx": 21856, "##heimer": 18826, "template": 23561, "##ders": 13375, "##ners": 16912, "padua": 24941, "watched": 3427, "requirement": 9095, "##400": 29537, "412": 25873, "[unused556]": 561, "transmitters": 26288, "nbc": 6788, "##tra": 6494, "##cum": 24894, "playback": 18245, "##0": 2692, "##\u0647": 14157, "enable": 9585, "gunner": 14850, "occasional": 8138, "shortstop": 25359, "drummond": 19266, "collisions": 28820, "padres": 21577, "##uring": 12228, "cd": 3729, "unanimous": 13604, "##yya": 19903, "##\u30eb": 30259, "##ology": 6779, "dancers": 10487, "topographic": 24254, "##\u116f": 30015, "vibe": 21209, "##rol": 13153, "routing": 16972, "criticised": 10648, "list": 2862, "875": 27658, "near": 2379, "mp3": 23378, "aromatic": 25496, "bunch": 9129, "leafs": 21349, "welles": 23447, "##ws": 9333, "##zcz": 29419, "smack": 21526, "denies": 23439, "shoots": 11758, "advocating": 20324, "bombay": 11831, "hundreds": 5606, "structural": 8332, "vampires": 6144, "answered": 4660, "absorb": 16888, "gallon": 25234, "je": 15333, "whisky": 21265, "[unused385]": 390, "1862": 6889, "##nian": 11148, "positive": 3893, "##ais": 15593, "beginning": 2927, "suppressed": 13712, "researching": 20059, "husbands": 19089, "recall": 9131, "##some": 14045, "nunez": 28454, "childbirth": 27162, "##sko": 21590, "powerful": 3928, "beg": 11693, "bernhard": 21432, "grown": 4961, "prep": 17463, "wrapping": 12252, "raged": 28374, "coefficient": 19064, "synth": 24203, "##brate": 22008, "recovering": 13400, "option": 5724, "declaring": 13752, "insane": 9577, "somalia": 14717, "##rate": 11657, "##uck": 12722, "layla": 19786, "poisonous": 22641, "palette": 27396, "##\u0431": 29740, "...": 2133, "adele": 17623, "##overs": 24302, "galician": 28830, "dawned": 27702, "hairs": 13606, "cinematic": 21014, "clermont": 27956, "rippled": 26862, "calvert": 24800, "##iam": 25107, "##rral": 24988, "danger": 5473, "bother": 8572, "vermont": 8839, "1815": 10679, "zones": 10019, "fur": 6519, "\u25aa": 1618, "yen": 18371, "sy": 25353, "maru": 26280, "tissues": 14095, "chamber": 4574, "chevy": 29009, "habitats": 10746, "kris": 19031, "dismissing": 28913, "jeremy": 7441, "coronation": 12773, "978": 4891, "colombia": 7379, "headwaters": 25345, "timothy": 10805, "##cos": 13186, "investor": 14316, "virtues": 21560, "precisely": 10785, "amc": 21962, "medalist": 12968, "commodore": 12957, "##26": 23833, "dmitry": 22141, "surveying": 19654, "[unused439]": 444, "outlaws": 23107, "billie": 18210, "contiguous": 25177, "ff": 21461, "cups": 10268, "kite": 20497, "90s": 17233, "dye": 18554, "##tarian": 28897, "hurley": 25124, "matches": 3503, "secretaries": 23660, "absence": 6438, "shrewsbury": 18174, "embrace": 9979, "@": 1030, "##rret": 27032, "completing": 7678, "failing": 7989, "bartender": 15812, "##lini": 22153, "bliss": 13670, "panda": 25462, "##\u90e1": 30485, "98": 5818, "appear": 3711, "curls": 14484, "steadily": 11328, "\u203a": 1533, "[unused37]": 38, "gotta": 10657, "methodist": 8938, "imaginary": 15344, "paint": 6773, "bully": 20716, "programmes": 8497, "depressed": 14777, "bypassed": 27539, "union": 2586, "\u2202": 1592, "engagements": 20583, "##joy": 24793, "metacritic": 14476, "dress": 4377, "##ivar": 28739, "joshi": 26645, "stopped": 3030, "hydroelectric": 18541, "\u0294": 1139, "coached": 8868, "conference": 3034, "tulane": 27437, "##ctive": 15277, "longed": 23349, "##\u702c": 30431, "sugarcane": 28910, "hay": 10974, "##ological": 10091, "chung": 15972, "potent": 16834, "##aling": 21682, "ox": 23060, "richly": 26502, "[unused92]": 93, "\u7687": 1917, "researchers": 6950, "boxers": 18508, "libre": 21091, "quadrant": 29371, "[unused539]": 544, "lunch": 6265, "wines": 14746, "conversely": 18868, "207": 19843, "\u3081": 1680, "fossil": 10725, "bt": 18411, "interact": 11835, "chairman": 3472, "codex": 15763, "##ium": 5007, "##\u00b7": 29661, "##ces": 9623, "##pres": 28994, "waving": 12015, "##cycle": 23490, "herr": 23506, "hop": 6154, "compromise": 12014, "frog": 10729, "##ned": 7228, "##udes": 22087, "\u1175": 1483, "gong": 17242, "opener": 16181, "\u2022": 1528, "transparent": 13338, "integer": 16109, "penalties": 12408, "transfer": 4651, "##wu": 16050, "##ros": 7352, "##\u0578": 29779, "alley": 8975, "villa": 6992, "rampage": 29216, "##rford": 26430, "texture": 14902, "squared": 19942, "edition": 3179, "[unused214]": 219, "mythology": 11327, "cannot": 3685, "##wani": 29092, "scroll": 17186, "##flight": 28968, "humanoid": 28051, "millionaire": 19965, "restarted": 25606, "##bourg": 20431, "seminary": 8705, "joyah": 27098, "##iani": 25443, "weddings": 20429, "boats": 6242, "gina": 17508, "##mg": 24798, "garfield": 20170, "##lo": 4135, "owe": 12533, "##te": 2618, "limited": 3132, "awards": 2982, "hamlet": 8429, "usc": 15529, "intercept": 19115, "barbarian": 25075, "sketches": 12741, "sign": 3696, "aquarium": 18257, "bali": 20222, "spies": 16794, "quantum": 8559, "lovely": 8403, "trinidad": 11856, "modular": 19160, "##<": 29629, "occur": 5258, "scratching": 20291, "sovereignty": 12601, "\u00b2": 1082, "blackwell": 18776, "lily": 7094, "\u30c8": 1714, "##chen": 8661, "flooding": 9451, "reddish": 14182, "bytes": 27507, "##hrer": 17875, "##ple": 10814, "##ikh": 28209, "compartments": 27998, "fills": 17469, "[unused759]": 764, "ignition": 17446, "costa": 6849, "camping": 13215, "##rice": 17599, "modernization": 20181, "##fc": 11329, "luciano": 24512, "penis": 19085, "storylines": 22628, "counting": 10320, "##bury": 4917, "##bered": 22408, "necklace": 13016, "unitary": 22127, "zoological": 26168, "##fle": 21031, "jasper": 14791, "result": 2765, "johns": 11545, "basket": 10810, "agra": 29542, "##istles": 28738, "stripes": 13560, "##ike": 17339, "##mani": 20799, "##eman": 16704, "activities": 3450, "lana": 16554, "yellowstone": 29231, "newscasts": 24482, "planetary": 17700, "promises": 10659, "academia": 16926, "##rize": 25709, "havana": 15278, "grille": 26192, "collar": 9127, "bn": 24869, "##dis": 10521, "##sky": 5874, "rendering": 14259, "happily": 11361, "beckett": 20599, "accurately": 14125, "papal": 12156, "vaccine": 17404, "devised": 14917, "kyoto": 15008, "chorus": 7165, "tame": 24763, "##opsis": 22599, "clyde": 12085, "favour": 7927, "swing": 7370, "trash": 11669, "explosions": 18217, "##urai": 24804, "##ouring": 27897, "reused": 26513, "wife": 2564, "##ishing": 21837, "venue": 6891, "\u09ae": 1370, "##rona": 26788, "##lin": 4115, "maitland": 25511, "boxes": 8378, "##\u0ca8": 29936, "comrade": 27661, "technology": 2974, "##\u03b4": 29722, "penultimate": 25512, "##illon": 20343, "prisoners": 5895, "demanded": 6303, "##ping": 4691, "[unused926]": 931, "##ella": 8411, "buster": 18396, "loyalists": 26590, "washing": 12699, "buck": 10131, "##berger": 14859, "##ement": 13665, "keen": 10326, "attached": 4987, "advocated": 11886, "functioning": 12285, "detector": 19034, "catholics": 10774, "\u1d63": 1508, "domesday": 22310, "electrical": 5992, "pier": 10356, "robotic": 20478, "widely": 4235, "viaduct": 20596, "##tos": 13122, "##53": 22275, "commanding": 7991, "female": 2931, "drum": 6943, "aiden": 15086, "experiment": 7551, "\u2014": 1517, "enriched": 25202, "positioned": 10959, "batter": 23801, "timely": 23259, "vinegar": 29387, "yuki": 24924, "herzegovina": 11453, "este": 28517, "store": 3573, "1830s": 20400, "society": 2554, "hyderabad": 13624, "##uron": 21017, "##fe": 7959, "interruption": 24191, "##yce": 29297, "17th": 5550, "th": 16215, "conceal": 19819, "wilde": 18575, "majestic": 22337, "recruited": 8733, "visionary": 28036, "sang": 6369, "muted": 22124, "athlete": 8258, "125": 8732, "recordings": 5633, "crete": 19111, "ticking": 28561, "wharf": 16435, "[unused937]": 942, "238": 22030, "##\u00a4": 29647, "arbor": 19679, "1886": 6929, "[unused0]": 1, "courtney": 14139, "pioneer": 7156, "locally": 7246, "vicinity": 9884, "wound": 6357, "realms": 18814, "better": 2488, "academics": 15032, "alonso": 17649, "spores": 23763, "conical": 24750, "customized": 28749, "ti": 14841, "rhea": 24775, "##iating": 15370, "subtropical": 11935, "commons": 7674, "jimmy": 5261, "##eurs": 26744, "consists": 3774, "dear": 6203, "ngo": 17895, "risking": 26875, "harvest": 11203, "jaya": 24120, "tourist": 7538, "##q": 4160, "offset": 16396, "##lman": 12624, "bullets": 10432, "##nberg": 11144, "forehead": 6130, "hog": 27589, "teeth": 4091, "##fp": 22540, "mia": 8764, "##sh": 4095, "10": 2184, "214": 19936, "expected": 3517, "doctorate": 8972, "demonstration": 10467, "calculating": 20177, "croft": 28983, "##zzy": 28753, "uncles": 27328, "##anus": 20849, "evangelist": 24036, "##pel": 11880, "middlesex": 13654, "royalties": 25335, "pirate": 11304, "[unused819]": 824, "swiss": 5364, "contenders": 27236, "riff": 24808, "pinned": 11807, "triassic": 29529, "[unused213]": 218, "lazy": 13971, "##imum": 28591, "closer": 3553, "thief": 12383, "darmstadt": 28381, "official": 2880, "means": 2965, "##\u2502": 30143, "catalytic": 26244, "##bu": 8569, "ejected": 22607, "notebook": 14960, "lex": 17244, "easy": 3733, "besieged": 17923, "perkins": 13601, "principally": 16552, "yao": 23711, "arching": 27335, "exactly": 3599, "hiding": 6318, "asturias": 26798, "gould": 14913, "presumably": 10712, "##esis": 19009, "##het": 27065, "max": 4098, "newton": 8446, "recommended": 6749, "sparhawk": 13709, "presumed": 14609, "mckinley": 22121, "heron": 22914, "outlet": 13307, "forceful": 28552, "siegfried": 25948, "tomato": 20856, "395": 24673, "[unused117]": 122, "##\u9752": 30501, "campus": 3721, "optical": 9380, "reduction": 7312, "rest": 2717, "vs": 5443, "clash": 13249, "[unused738]": 743, "1950": 3925, "##ath": 8988, "##llin": 21202, "[UNK]": 100, "te": 8915, "former": 2280, "bilateral": 17758, "butterfly": 9112, "dora": 21008, "sworn": 10741, "analog": 11698, "witness": 7409, "mapped": 17715, "##ms": 5244, "suggested": 4081, "above": 2682, "fall": 2991, "sousa": 28535, "##lwyn": 29287, "renal": 25125, "inflammation": 21733, "guarantees": 21586, "outdoor": 7254, "bucks": 14189, "producer": 3135, "\u76ee": 1918, "##erving": 25164, "otherwise": 4728, "kurdish": 15553, "perfect": 3819, "competitions": 6479, "necks": 26082, "blouse": 18149, "freshmen": 26612, "##stered": 24167, "ns": 24978, "eastern": 2789, "1813": 12169, "moscow": 4924, "fluids": 20989, "##nk": 8950, "##\u0280": 29693, "rebecca": 9423, "relational": 28771, "literally": 6719, "riches": 26768, "stronger": 6428, "hopping": 26397, "gland": 25320, "geoffrey": 11023, "endowment": 15108, "38th": 22051, "widened": 8723, "conception": 13120, "striped": 17983, "ussr": 10331, "dish": 9841, "fake": 8275, "graphs": 19287, "##vation": 21596, "creek": 3636, "de": 2139, "elizabeth": 3870, "loser": 10916, "##@": 29633, "##\u548c": 30322, "caribbean": 7139, "\u05e4": 1261, "workout": 27090, "tracing": 16907, "[unused702]": 707, "benevolent": 25786, "##ro": 3217, "claudio": 19569, "exams": 13869, "##20": 11387, "##\u1106": 29995, "arm": 2849, "bulb": 20581, "peel": 14113, "[unused881]": 886, "flap": 20916, "cuthbert": 24583, "actually": 2941, "attack": 2886, "manifest": 19676, "divinity": 16968, "trek": 10313, "loyal": 8884, "##gman": 25494, "diana": 8805, "slug": 23667, "##\u10e0": 29987, "[unused302]": 307, "hindus": 18221, "fredrik": 25454, "\u7537": 1912, "##sure": 28632, "defective": 28829, "##tang": 26067, "primaries": 27419, "sweaty": 19889, "slumped": 14319, "cruises": 23986, "34th": 20460, "seduce": 23199, "##aldi": 24657, "and": 1998, "junta": 22450, "ft": 3027, "##nu": 11231, "pipeline": 13117, "breeders": 20823, "cornwall": 10387, "##sby": 14478, "commentators": 15957, "oils": 20631, "subspecies": 11056, "[unused828]": 833, "excel": 24970, "thanksgiving": 15060, "coming": 2746, "whoa": 23281, "sky": 3712, "ascent": 16354, "patch": 8983, "wagon": 9540, "advertisement": 15147, "##mina": 22311, "aft": 16638, "che": 18178, "morse": 17107, "displayed": 6913, "##chison": 27795, "##eaux": 25639, "##izzly": 29266, "dancing": 5613, "jet": 6892, "emmy": 10096, "sabah": 22515, "hysteria": 29004, "physicist": 13702, "shrill": 28349, "tortricidae": 27683, "lie": 4682, "enrichment": 27226, "##su": 6342, "observe": 11949, "overly": 15241, "celebrity": 8958, "classical": 4556, "psychiatry": 18420, "shattered": 10909, "truman": 15237, "periods": 6993, "vaughn": 18220, "##\u3084": 30208, "kilometer": 20595, "reborn": 24910, "\u5b80": 1818, "effectively": 6464, "except": 3272, "lust": 11516, "placing": 6885, "##vary": 21639, "##wig": 16279, "passages": 13768, "martins": 19953, "francaise": 18427, "iain": 24486, "elf": 17163, "##ita": 6590, "flushing": 23519, "glancing": 10167, "sobbing": 20040, "minutes": 2781, "##di": 4305, "taylor": 4202, "##fen": 18940, "\u79cb": 1929, "voyage": 8774, "incidence": 18949, "imperfect": 29238, "tad": 18819, "relentless": 21660, "approach": 3921, "platinum": 8899, "buena": 27493, "hilt": 21184, "areas": 2752, "caledonian": 27449, "##\u1d56": 30040, "basha": 26074, "\u2f65": 1634, "##taking": 17904, "parishes": 11600, "saying": 3038, "anyone": 3087, "caress": 21753, "##see": 19763, "moritz": 28461, "paid": 3825, "taxes": 7773, "\u025b": 1115, "##mer": 5017, "translating": 22969, "##ration": 8156, "homestead": 14473, "mps": 12616, "nirvana": 26530, "attacking": 7866, "hiss": 19074, "##uga": 16377, "##sham": 21010, "##tors": 6591, "reviewer": 12027, "killings": 16431, "commencing": 25819, "tracts": 22069, "[unused447]": 452, "dryly": 20825, "notation": 14869, "paused": 5864, "##\u5e78": 30367, "salman": 28542, "slices": 25609, "admiral": 5902, "speed": 3177, "wireless": 9949, "slopes": 10314, "propose": 16599, "[unused481]": 486, "quit": 8046, "##ois": 10054, "##nut": 24072, "deal": 3066, "69": 6353, "lifetime": 6480, "nagasaki": 27107, "receiving": 4909, "##\u2014": 30052, "reconciliation": 16088, "enfield": 25821, "##\u043e\u0432\u0438\u0447": 16198, "adventures": 7357, "##ger": 4590, "ezra": 16245, "alps": 13698, "byte": 24880, "shades": 13178, "##pu": 14289, "##eles": 26741, "embroidered": 23590, "##venting": 26703, "chemistry": 6370, "clashes": 17783, "marijuana": 16204, "hoping": 5327, "mercenaries": 19331, "mosquito": 22529, "stretch": 7683, "\u2079": 1543, "turnbull": 26439, "tomas": 12675, "education": 2495, "nottingham": 11331, "\u58eb": 1807, "##grade": 24170, "professional": 2658, "1901": 5775, "heartbeat": 12251, "jae": 22770, "##nnis": 27803, "dogg": 28844, "marketed": 11625, "adapt": 15581, "reaches": 6561, "states": 2163, "##rogated": 26565, "stresses": 23253, "changed": 2904, "lordship": 20698, "cleaning": 9344, "guessing": 16986, "stabbing": 21690, "\u0923": 1322, "ashore": 16145, "##anna": 25789, "licking": 17033, "nec": 26785, "operatic": 22534, "plaques": 28487, "react": 10509, "reactor": 13308, "##drik": 28730, "crore": 21665, "##cuting": 29163, "foot": 3329, "demonic": 23170, "##kker": 23793, "elijah": 14063, "archival": 22796, "##`": 29639, "##ina": 3981, "throughout": 2802, "##gum": 22850, "227": 21489, "vehicle": 4316, "alba": 18255, "divides": 20487, "psychiatrist": 18146, "##52": 25746, "xii": 14371, "nme": 23770, "moshe": 27123, "elementary": 4732, "brands": 9639, "tricked": 24929, "83": 6640, "##oting": 20656, "##hler": 13620, "plans": 3488, "martinez": 10337, "hideout": 29588, "##aer": 27867, "adjunct": 20621, "conform": 23758, "##ears": 26492, "inspectors": 28421, "popped": 10538, "committing": 16873, "##meric": 25531, "primarily": 3952, "sponsorship": 12026, "[unused14]": 15, "greek": 3306, "mccarthy": 12584, "murdoch": 19954, "2020": 12609, "derivatives": 16942, "robb": 26211, "ballistic": 19630, "bingo": 27137, "pathetic": 17203, "sonny": 13584, "streak": 9039, "tyres": 24656, "rides": 12271, "recent": 3522, "capped": 13880, "##puram": 17809, "groaned": 9655, "exist": 4839, "73": 6421, "ruben": 19469, "susannah": 20471, "##not": 17048, "[unused965]": 970, "conservatory": 11879, "##rily": 11272, "nike": 18368, "wii": 16568, "##\u06af": 29842, "shadow": 5192, "tonnes": 11000, "auschwitz": 24363, "complexity": 11619, "##\u5357": 30311, "rubin": 20524, "[unused443]": 448, "1646": 28783, "christopher": 5696, "franchise": 6329, "rani": 21617, "galway": 14370, "innovations": 15463, "[unused497]": 502, "[unused64]": 65, "cylindrical": 18797, "baron": 5797, "delaware": 8452, "##enko": 17868, "duchess": 11017, "rangers": 7181, "guillermo": 21070, "##gley": 22971, "##wife": 19993, "##break": 23890, "[unused310]": 315, "jude": 12582, "##cular": 15431, "##play": 13068, "office": 2436, "stanza": 29509, "tried": 2699, "stellar": 17227, "##ouin": 25058, "conserved": 19995, "##thing": 20744, "alter": 11477, "ad": 4748, "includes": 2950, "[unused590]": 595, "flawless": 27503, "\u0440": 1195, "depend": 12530, "theater": 4258, "winthrop": 28974, "onslaught": 28644, "escorted": 13127, "79": 6535, "clothed": 24963, "##neo": 23585, "beaten": 7854, "louise": 8227, "stature": 21120, "rhapsody": 29395, "comforting": 16334, "disturbing": 14888, "equivalent": 5662, "outbreak": 8293, "jd": 26219, "[unused628]": 633, "##ith": 8939, "miserable": 13736, "arrivals": 25470, "bat": 7151, "limestone": 9771, "344": 29386, "dangerously": 20754, "continuity": 13717, "singled": 25369, "radios": 22229, "##alla": 25425, "##grapher": 18657, "differences": 5966, "##tical": 14656, "pow": 23776, "extremes": 28800, "distance": 3292, "barren": 20225, "generation": 4245, "lexi": 16105, "##long": 10052, "##wley": 20609, "[unused246]": 251, "honorable": 13556, "##\u0bb5": 29930, "nato": 10079, "fated": 27442, "##ester": 20367, "initiated": 7531, "mexico": 3290, "airborne": 10519, "kin": 12631, "mute": 20101, "offended": 15807, "sediments": 20476, "##carriage": 21539, "##wen": 12449, "\u5f73": 1845, "accepts": 13385, "barclay": 23724, "##oop": 18589, "1864": 6717, "[unused434]": 439, "beginnings": 16508, "last": 2197, "sanctuary": 8493, "tents": 17732, "[unused717]": 722, "cesare": 26708, "##vered": 25896, "regular": 3180, "\u5973": 1815, "alexis": 13573, "frederic": 15296, "1982": 3196, "promise": 4872, "kang": 16073, "dino": 22412, "##nting": 24360, "influenced": 5105, "federal": 2976, "furlongs": 26602, "deserted": 12768, "\u06d2": 1310, "dependence": 18642, "ars": 29393, "slips": 17433, "zeppelin": 22116, "ie": 29464, "td": 14595, "bribes": 29117, "nba": 6452, "spp": 26924, "leslie": 8886, "nitrate": 29607, "ot": 27178, "bind": 14187, "solely": 9578, "##\u21cc": 30118, "##bar": 8237, "stirling": 15597, "##\u300a": 30165, "filthy": 18294, "sarah": 4532, "309": 25048, "##ey": 3240, "una": 14477, "cory": 18342, "strips": 12970, "clutched": 13514, "woody": 13703, "[unused450]": 455, "##\u0575": 29777, "ideological": 17859, "4th": 4343, "reform": 5290, "##ckey": 29183, "titled": 4159, "keenan": 26334, "##\u4e00": 30266, "[unused587]": 592, "church": 2277, "vivian": 13801, "peek": 19043, "average": 2779, "mma": 21021, "lurched": 21977, "celebrate": 8439, "##eg": 13910, "##up": 6279, "fm": 4718, "campuses": 13696, "title": 2516, "charge": 3715, "decidedly": 27873, "differ": 11234, "teaching": 4252, "[unused983]": 988, "goals": 3289, "##ui": 10179, "stating": 5517, "transatlantic": 26617, "##\u02bf": 29714, "1930": 4479, "brook": 9566, "quoting": 27394, "dresden": 12983, "presley": 17229, "##tension": 29048, "intermediate": 7783, "hoc": 21929, "##promising": 25013, "\u5b87": 1819, "blink": 12373, "filippo": 28669, "miniature": 12973, "##ider": 18688, "announcing": 13856, "antiquity": 16433, "##dya": 25838, "masonic": 21152, "dry": 4318, "##ien": 9013, "midland": 12240, "pink": 5061, "ruse": 26307, "siegel": 27996, "|": 1064, "##qua": 16211, "fashioned": 13405, "serves": 4240, "1730": 23272, "beatrice": 14807, "##care": 16302, "replicate": 28024, "existed": 5839, "[unused182]": 187, "api": 17928, "overlap": 17702, "smells": 14747, "formulated": 19788, "standards": 4781, "forrest": 16319, "trunks": 20509, "improving": 9229, "lad": 14804, "1867": 7517, "independently": 9174, "emigrated": 11367, "persistence": 28297, "electors": 19165, "ted": 6945, "trim": 12241, "virginia": 3448, "[unused44]": 45, "[unused63]": 64, "erin": 11781, "frontman": 21597, "identical": 7235, "##pass": 15194, "anything": 2505, "lace": 12922, "tanaka": 21829, "helsinki": 12331, "transformers": 19081, "swapped": 29176, "colon": 16844, "sparrow": 19479, "##skin": 29334, "exotic": 12564, "wilkinson": 16237, "betting": 19244, "chunk": 20000, "pleasures": 26552, "task": 4708, "##\u092a": 29864, "52nd": 26898, "##sd": 16150, "##\u05d6": 29793, "debuting": 24469, "cmll": 25395, "domestically": 27143, "overview": 19184, "adhere": 25276, "hurts": 13403, "##mart": 22345, "millimetres": 13388, "neutrality": 21083, "perished": 23181, "dozens": 9877, "livelihood": 24585, "chopped": 24881, "speculative": 23250, "budapest": 10926, "consumers": 10390, "bored": 11471, "exponential": 27258, "bodied": 22549, "joao": 16304, "transaction": 12598, "compass": 16681, "\u0452": 1211, "electrode": 28688, "zen": 16729, "##iens": 24836, "lowell": 15521, "marble": 7720, "documentation": 12653, "afb": 16909, "##hey": 14844, "\u6210": 1854, "1847": 9176, "havoc": 22156, "reapers": 27733, "vernon": 11447, "##emia": 17577, "rave": 23289, "\u0446": 1201, "whales": 17967, "##sei": 20240, "elders": 13376, "\u3059": 1658, "refuge": 9277, "calf": 19134, "shay": 18789, "terrestrial": 12350, "apps": 18726, "hiring": 14763, "workplace": 16165, "\u2091": 1561, "##eng": 13159, "gan": 25957, "follow": 3582, "pact": 14790, "honestly": 9826, "mclaughlin": 23720, "##cp": 21906, "ligament": 25641, "handed": 4375, "1938": 4260, "vol": 5285, "##edd": 22367, "taxa": 23726, "myers": 13854, "prague": 8634, "parkinson": 20310, "end": 2203, "illustrating": 28252, "stable": 6540, "forte": 24898, "rebuilding": 14584, "dissolved": 8314, "##rro": 18933, "naomi": 12806, "##\u4fdd": 30292, "romanesque": 17135, "comics": 5888, "judicial": 8268, "waves": 5975, "softness": 27012, "mohammed": 12619, "##eries": 28077, "##hila": 26415, "forge": 15681, "##nd": 4859, "myself": 2870, "standings": 11869, "wary": 15705, "kendra": 13812, "4000": 20143, "unacceptable": 21873, "##ep": 13699, "chin": 5413, "bending": 14457, "gender": 5907, "retire": 11036, "creations": 20677, "aids": 8387, "receivers": 19278, "sank": 7569, "showing": 4760, "soothing": 16684, "involves": 7336, "lausanne": 22256, "dunn": 14145, "caliphate": 28034, "##ssing": 18965, "fame": 4476, "pop": 3769, "predictable": 21425, "leaps": 29195, "premise": 18458, "sly": 18230, "telescope": 12772, "punch": 8595, "hat": 6045, "conglomerate": 22453, "2007": 2289, "announcer": 14073, "91": 6205, "spokesman": 14056, "subtly": 28797, "athena": 21880, "temps": 29023, "forever": 5091, "pure": 5760, "slapping": 22021, "medial": 23828, "barr": 19820, "tasted": 12595, "inform": 12367, "trusts": 20278, "origins": 7321, "##16": 16048, "##llum": 20845, "win": 2663, "hutchinson": 17165, "governed": 9950, "first": 2034, "wally": 18202, "inmates": 13187, "##uru": 14129, "##yd": 25688, "convictions": 20488, "disks": 23999, "hawthorne": 23440, "lingered": 17645, "147": 16471, "jessica": 8201, "##\u00b9": 27904, "calgary": 10112, "##ricting": 28827, "josiah": 24461, "magazines": 7298, "softball": 12585, "teachers": 5089, "fulton": 17049, "objections": 17304, "##imate": 21499, "07": 5718, "milestone": 19199, "thor": 15321, "toulouse": 17209, "ryu": 19367, "##rgh": 27172, "##thorpe": 22398, "##\u062a": 29817, "fetch": 18584, "multiple": 3674, "rms": 29311, "decimal": 26066, "marilyn": 14749, "treasure": 8813, "willow": 11940, "followers": 8771, "lineup": 10515, "supplementary": 26215, "\u5d0e": 1834, "136": 15407, "heel": 12073, "stalking": 20070, "inadvertently": 21089, "restraints": 28054, "hurting": 11878, "\u2ebc": 1633, "joe": 3533, "##sau": 23823, "chaired": 12282, "\u52dd": 1780, "##\u91cc": 30488, "enthusiasts": 20305, "swiftly": 12128, "##ogical": 20734, "moss": 10636, "46": 4805, "bien": 29316, "intimately": 29024, "sprawling": 24199, "##rle": 20927, "##\u5834": 30332, "##lth": 24658, "hutton": 20408, "bachelor": 5065, "drag": 8011, "wedding": 5030, "##watch": 18866, "tenant": 16713, "believe": 2903, "important": 2590, "justification": 19777, "carol": 8594, "photographs": 7008, "seem": 4025, "characters": 3494, "statement": 4861, "unclear": 10599, "1797": 14112, "karate": 16894, "lasted": 6354, "52": 4720, "north": 2167, "kennedy": 5817, "appealed": 12068, "jerk": 12181, "sherman": 11011, "amenities": 19870, "1630": 24994, "##grant": 18980, "baseman": 18038, "ahmed": 10208, "boulevard": 8459, "disguise": 14249, "pauline": 15595, "##uf": 16093, "##\u0458": 29761, "tangle": 24453, "layered": 21323, "##vity": 24872, "##\u0dcf": 29944, "vanderbilt": 17066, "tribute": 7050, "brahms": 28419, "households": 3911, "outsiders": 22361, "allowance": 21447, "elk": 18995, "violin": 6710, "[unused704]": 709, "dynamite": 21719, "favorite": 5440, "ottomans": 17774, "waldo": 28806, "enjoying": 9107, "interfered": 28976, "stored": 8250, "leap": 11679, "chat": 11834, "eerie": 18823, "periodical": 21802, "devastation": 25594, "millennium": 10144, "expertise": 11532, "contrasted": 22085, "highest": 3284, "##28": 22407, "##logie": 27095, "##\u2663": 30151, "1705": 29326, "dumb": 12873, "soup": 11350, "bottled": 26071, "hal": 11085, "hobbs": 23748, "murderer": 13422, "290": 17222, "commune": 5715, "student": 3076, "##nche": 26091, "musique": 25784, "##pine": 19265, "kimberley": 25004, "ahl": 18347, "##)": 29620, "study": 2817, "##dh": 16425, "scenes": 5019, "##\u026c": 29687, "kala": 26209, "parental": 18643, "pornography": 19378, "optimistic": 21931, "\u30e9": 1731, "##\u5fa1": 30373, "graduate": 4619, "hinduism": 19632, "conditions": 3785, "bari": 22466, "##\u0bbe": 29931, "bulgaria": 8063, "hectares": 9076, "immature": 26838, "democrat": 7672, "refurbished": 18662, "2a": 23409, "##sio": 20763, "measurements": 11702, "learnt": 20215, "affairs": 3821, "##yria": 20379, "canal": 5033, "[unused579]": 584, "marcus": 6647, "goalkeeper": 9653, "##rba": 28483, "expansion": 4935, "superstructure": 28391, "teams": 2780, "lb": 6053, "warwick": 13283, "amnesty": 16154, "people": 2111, "able": 2583, "##aru": 15728, "westchester": 25489, "householder": 7536, "nueva": 24536, "##ken": 7520, "likelihood": 16593, "acquire": 9878, "curate": 27530, "cipher": 27715, "pains": 20398, "##res": 6072, "servant": 7947, "1872": 7572, "clicked": 13886, "choices": 9804, "urban": 3923, "fragile": 13072, "accompaniment": 22205, "fixture": 15083, "down": 2091, "anarchist": 18448, "claire": 6249, "##inate": 14776, "leah": 14188, "##toy": 29578, "reopened": 11882, "nk": 25930, "affects": 13531, "daring": 15236, "##berman": 23991, "02": 6185, "##zle": 29247, "analyses": 16478, "salsa": 26509, "\u2229": 1604, "gestures": 18327, "1861": 6863, "1906": 5518, "[unused368]": 373, "ulrich": 19619, "##\u72ac": 30434, "[unused309]": 314, "quantity": 11712, "fashionable": 19964, "2500": 25108, "doe": 18629, "clayton": 11811, "##itarian": 25691, "kenyan": 20428, "##kari": 20224, "##nington": 23155, "ingram": 23231, "##ount": 21723, "[unused616]": 621, "opponents": 7892, "##chers": 21844, "##nta": 12380, "puff": 23893, "23rd": 13928, "swords": 10689, "waste": 5949, "mclaren": 18590, "tome": 21269, "jeremiah": 17526, "registering": 25719, "minds": 9273, "##tance": 26897, "stinging": 22748, "##idia": 29342, "limousine": 28012, "##tium": 16398, "194": 19955, "ava": 10927, "goats": 17977, "strings": 7817, "struggling": 8084, "##elial": 24587, "germain": 19192, "\u30b1": 1703, "##gong": 17036, "limbs": 10726, "describe": 6235, "montenegro": 13018, "settlers": 7322, "tudor": 15588, "prophets": 23172, "vote": 3789, "wit": 15966, "single": 2309, "\u2081": 1548, "##\u044c": 23742, "intake": 13822, "##aina": 27971, "placed": 2872, "\u85e4": 1944, "definitive": 15764, "[unused544]": 549, "occasions": 6642, "##\u00a1": 29644, "pleading": 16418, "violated": 14424, "##lag": 17802, "##fk": 24316, "misleading": 22369, "output": 6434, "##sner": 20479, "baseline": 26163, "skye": 16590, "##des": 6155, "curly": 17546, "before": 2077, "nak": 17823, "analysts": 18288, "gmina": 7061, "manitoba": 10512, "resolving": 29304, "##erik": 27350, "206": 18744, "greenwich": 13861, "tucson": 17478, "pitched": 8219, "##vita": 28403, "winnipeg": 11093, "rosy": 26851, "\u79be": 1927, "offshore": 12195, "straining": 21366, "##rano": 20770, "asset": 11412, "engage": 8526, "mode": 5549, "cards": 5329, "[unused514]": 519, "malone": 16321, "##nate": 12556, "##\u5341": 30309, "##ehan": 24660, "reed": 7305, "##\u57ce": 30330, "[unused561]": 566, "ragged": 14202, "##nished": 28357, "##cloth": 23095, "yield": 10750, "outnumbered": 21943, "##abi": 28518, "okay": 3100, "douglas": 5203, "baked": 17776, "tunes": 13281, "blade": 6085, "##ided": 14097, "[unused988]": 993, "##sser": 18116, "cafes": 23812, "antagonist": 17379, "haji": 28174, "bitter": 8618, "jade": 12323, "lore": 19544, "[unused365]": 370, "facial": 13268, "somerset": 9198, "user": 5310, "bared": 23485, "regulators": 25644, "pierce": 9267, "\u05d5": 1246, "shuffling": 24770, "catalonia": 16711, "\u0b95": 1382, "portsmouth": 10913, "1840s": 19308, "\u51fa": 1774, "collaborations": 17437, "paso": 17161, "##cam": 28727, "colloquially": 23992, "##efined": 28344, "tear": 7697, "##ani": 7088, "late": 2397, "by": 2011, "##\u3086": 30209, "churchyard": 19812, "teammates": 13220, "[unused903]": 908, "cree": 27831, "debuted": 6006, "kidnapping": 15071, "patrons": 13497, "cornerstone": 23354, "##\u98a8": 30503, "parameters": 11709, "\u0442": 1197, "##hedral": 27310, "##\u0f44": 29963, "ascribed": 28025, "1890": 6193, "slavic": 13838, "michigan": 4174, "##gawa": 21188, "quite": 3243, "affectionately": 28734, "salim": 27490, "nasty": 11808, "subway": 10798, "##ric": 7277, "realises": 25924, "isaac": 7527, "\u203f": 1534, "reworked": 27575, "child": 2775, "younger": 3920, "##atics": 17592, "ethical": 12962, "##\u00ae": 29656, "coding": 16861, "efficiently": 18228, "energetic": 18114, "highlighted": 11548, "surname": 11988, "grammar": 8035, "nw": 22064, "loading": 10578, "analyzed": 16578, "curiosity": 10628, "providence": 11293, "boyd": 12164, "faust": 24021, "mohan": 18529, "##tries": 21011, "robson": 23698, "nor": 4496, "dropped": 3333, "hallmark": 25812, "intercity": 20651, "companion": 7452, "ourselves": 9731, "scratch": 11969, "##hala": 19531, "fisheries": 13424, "[unused46]": 47, "##iot": 25185, "##ena": 8189, "concepcion": 27331, "agrarian": 23226, "##logy": 6483, "drumming": 22980, "axe": 12946, "##urgent": 27176, "piper": 11939, "aspects": 5919, "lethal": 12765, "repetitive": 23563, "##lls": 12718, "vulnerability": 18130, "ineligible": 22023, "ecstasy": 19069, "availability": 11343, "arising": 17707, "##connected": 24230, "anticipated": 11436, "[unused453]": 458, "##nty": 29405, "consciously": 24447, "named": 2315, "says": 2758, "hearth": 22885, "contemplating": 25247, "convenience": 15106, "wizard": 10276, "fridge": 16716, "[unused431]": 436, "hodges": 19772, "spraying": 29035, "baggage": 20220, "insulation": 25710, "certainly": 5121, "kelvin": 24810, "sanitation": 18723, "##parts": 26950, "moves": 5829, "collaborate": 20880, "##utus": 23998, "breeding": 8119, "pack": 5308, "qc": 25196, "##rton": 11715, "felicity": 27357, "\u793e": 1924, "dramatically": 12099, "##nesian": 20281, "dragons": 8626, "origin": 4761, "humane": 23369, "eel": 24315, "##ique": 7413, "##\u03ba": 29726, "launch": 4888, "\u00a3100": 27708, "kam": 27829, "giacomo": 22873, "##the": 10760, "dhaka": 16479, "##\u53f2": 30316, "\u65b0": 1862, "##ka": 2912, "organising": 21317, "##gin": 11528, "\u0e19": 1413, "##rud": 28121, "elects": 27161, "celaena": 29252, "visually": 17453, "beck": 10272, "cardiac": 15050, "rhymes": 24468, "manny": 16320, "##ise": 5562, "tis": 22320, "##chrome": 20366, "lantern": 12856, "ash": 6683, "##\u963f": 30497, "##rney": 27114, "strengthened": 13949, "composition": 5512, "ruby": 10090, "hagen": 24047, "aperture": 18892, "crushed": 10560, "haifa": 21303, "spoil": 27594, "km\u00b2": 3186, "extending": 8402, "outlines": 22106, "promenade": 26815, "upgrades": 18739, "walsall": 29054, "cushion": 22936, "##rave": 22401, "specialty": 12233, "cp": 18133, "tc": 22975, "macarthur": 17719, "dependent": 7790, "manufacturing": 5814, "dedicated": 4056, "\u53f8": 1791, "almighty": 26668, "onions": 24444, "requiem": 21199, "circuits": 13782, "barney": 15377, "hush": 20261, "qaeda": 18659, "moravian": 28131, "neumann": 22860, "committees": 9528, "quotes": 16614, "broom": 23528, "more": 2062, "idaho": 9795, "reached": 2584, "keeping": 4363, "casa": 14124, "##walk": 17122, "\u0bc1": 1397, "occupants": 18837, "glue": 25238, "bandages": 27993, "##aine": 18175, "skulls": 21542, "sounding": 9391, "dwellers": 28857, "31st": 17089, "sirius": 23466, "dismissal": 15322, "##vik": 13309, "50th": 12951, "[unused138]": 143, "damp": 10620, "rag": 17768, "mall": 6670, "bergman": 24544, "vox": 29450, "pronunciation": 15498, "lund": 21860, "russo": 17023, "nawab": 26543, "\u0bae": 1389, "gloria": 10778, "##pa": 4502, "talks": 7566, "rod": 8473, "adultery": 29169, "delicately": 28814, "pedestal": 24496, "unique": 4310, "informal": 11900, "mic": 23025, "recommend": 16755, "bazaar": 22774, "##pire": 20781, "##bit": 16313, "##aton": 22436, "1781": 16788, "cracked": 9630, "looks": 3504, "##llah": 18599, "eras": 28500, "tempting": 23421, "##ths": 26830, "##kar": 6673, "##mir": 14503, "wiping": 14612, "david": 2585, "\u6226": 1856, "airmen": 29437, "bury": 11010, "hill": 2940, "##\u02e2": 29717, "bolsheviks": 28755, "mobile": 4684, "##used": 13901, "pope": 4831, "posting": 14739, "signatures": 16442, "inquiries": 27050, "##oria": 11069, "lowering": 13845, "##yla": 23943, "willy": 16172, "[unused122]": 127, "\u0282": 1129, "vogue": 17734, "\u2085": 1552, "commercial": 3293, "[unused428]": 433, "jenna": 13504, "fairly": 7199, "rule": 3627, "technological": 10660, "stammered": 28532, "flush": 13862, "travis": 10001, "axle": 17290, "##uer": 13094, "kia": 27005, "##ie": 2666, "negative": 4997, "manning": 11956, "rainbow": 10098, "##sworth": 12255, "commence": 22825, "jumped": 5598, "geoff": 14915, "[unused912]": 917, "hushed": 24033, "ritchie": 20404, "04": 5840, "helicopters": 12400, "semifinal": 16797, "walking": 3788, "clasp": 23465, "heterosexual": 28229, "sbs": 21342, "flags": 9245, "solos": 24339, "laszlo": 28226, "##\u201c": 30058, "deposited": 14140, "surroundings": 11301, "[unused477]": 482, "adjusted": 10426, "epithet": 19626, "shakespeare": 8101, "views": 5328, "##illy": 20577, "dodge": 11898, "evening": 3944, "myth": 10661, "intrusion": 24554, "newt": 25597, "implicated": 20467, "initially": 3322, "walters": 19097, "13th": 6122, "##finger": 20349, "264": 21611, "complete": 3143, "rochdale": 26109, "1683": 27414, "compassionate": 29353, "upside": 14961, "[unused283]": 288, "kraft": 26680, "jumps": 14523, "reyes": 12576, "files": 6764, "eisenhower": 16551, "1968": 3380, "explosive": 11355, "##bron": 21337, "immaculate": 19532, "shed": 8328, "quinn": 8804, "\u00f0": 1098, "voters": 7206, "iced": 28248, "paperback": 13611, "263": 25246, "acknowledged": 8969, "benedict": 12122, "dirt": 6900, "learn": 4553, "interpreting": 25455, "companies": 3316, "[unused547]": 552, "warfare": 8309, "jack": 2990, "amalgamation": 21968, "front": 2392, "##nko": 16107, "possessing": 18840, "[unused778]": 783, "\u10e2": 1453, "##kled": 19859, "here": 2182, "[unused367]": 372, "oracle": 14721, "finch": 16133, "##aud": 19513, "##itaire": 29422, "coarse": 20392, "##movable": 25661, "##routed": 25849, "lev": 23310, "inherently": 26096, "buyers": 17394, "##o": 2080, "##uded": 13936, "satisfactory": 23045, "arrays": 27448, "swallows": 26436, "590": 25186, "nap": 18996, "1910s": 28088, "##oulos": 28262, "gable": 13733, "surprising": 11341, "rosario": 17496, "[unused6]": 7, "##\u0250": 29676, "##nage": 27031, "comedian": 9971, "ventral": 23420, "directs": 23303, "##lston": 21540, "against": 2114, "reggae": 15662, "kyle": 7648, "##\u2013": 30051, "##icient": 20132, "airports": 13586, "half": 2431, "norte": 19931, "desperation": 15561, "##load": 11066, "otis": 18899, "jens": 25093, "atlantis": 16637, "##rin": 6657, "##pia": 19312, "rifle": 5883, "there": 2045, "penetrating": 22391, "##ciful": 26336, "##tson": 25656, "\u30d5": 1720, "\u03b8": 1162, "miocene": 26926, "assessments": 20794, "isotope": 28846, "##\u79be": 30453, "intimacy": 20893, "##\u0921": 29857, "gubernatorial": 19100, "##cchi": 25955, "helicopter": 7739, "dolores": 21544, "[unused966]": 971, "forces": 2749, "##tious": 20771, "exhaust": 15095, "died": 2351, "425": 23285, "##bahn": 16052, "390": 20024, "rib": 19395, "##sten": 16173, "gaming": 10355, "rushes": 18545, "handful": 9210, "duct": 23245, "lucia": 12337, "##glia": 20011, "spinning": 9419, "lebanon": 8341, "miner": 18594, "freaks": 29526, "##cs": 6169, "outlying": 25376, "417": 27519, "##well": 4381, "catch": 4608, "[unused703]": 708, "anterior": 15099, "##eiro": 17166, "kay": 10905, "aristocratic": 19774, "cedric": 26170, "[unused251]": 256, "confines": 25722, "[unused90]": 91, "spread": 3659, "mill": 4971, "palestine": 8976, "violations": 13302, "##ivity": 7730, "rashid": 22080, "dani": 19522, "michelangelo": 27701, "alaska": 7397, "edict": 24754, "communicated": 24162, "##raction": 25533, "cocked": 13179, "guess": 3984, "305": 20405, "##ig": 8004, "maize": 21154, "##red": 5596, "[unused141]": 146, "clarke": 8359, "casimir": 24701, "erroneously": 29411, "5000": 13509, "##cius": 25393, "26": 2656, "proud": 7098, "declare": 13520, "joy": 6569, "grades": 7022, "slap": 14308, "problematic": 18636, "friends": 2814, "[unused382]": 387, "##ibar": 26656, "kn": 14161, "involvement": 6624, "##ference": 25523, "##quel": 22197, "##\u2081": 11871, "mohawk": 22338, "compassion": 15398, "manually": 21118, "stone": 2962, "tremble": 20627, "##\u306d": 30196, "cho": 16480, "adequate": 11706, "\"": 1000, "jenny": 8437, "popping": 20095, "reputed": 22353, "menace": 19854, "startled": 9696, "\u30c6": 1713, "cradled": 23774, "spiritual": 6259, "\u02d0": 1150, "emphasized": 13155, "\u301c": 1645, "[unused294]": 299, "comparatively": 20172, "##feit": 21156, "##rum": 6824, "dolly": 19958, "gloom": 24067, "asian": 4004, "hammersmith": 28420, "1870": 6940, "spectacular": 12656, "naples": 10553, "dialed": 21300, "justine": 26377, "straightening": 27508, "arrive": 7180, "devoid": 22808, "tertiary": 13553, "walkers": 22559, "2008": 2263, "##ogist": 22522, "advisor": 8619, "[unused375]": 380, "ia": 24264, "\u0bb3": 1393, "troy": 9553, "nyu": 27935, "jill": 10454, "westminster": 9434, "memorandum": 20336, "oil": 3514, "##most": 11800, "advances": 9849, "129": 14378, "josie": 15293, "accuracy": 10640, "worn": 6247, "##ler": 3917, "corpus": 13931, "1811": 13086, "probability": 9723, "famous": 3297, "really": 2428, "experimented": 20918, "##\u208a": 30086, "recreational": 10517, "viruses": 18191, "##ost": 14122, "\u05e9": 1266, "active": 3161, "distributions": 20611, "[unused77]": 78, "buttons": 11287, "whispering": 13550, "\u05d4": 1245, "beverage": 19645, "calais": 23116, "##rdial": 25070, "dollar": 7922, "fiddle": 15888, "relatives": 9064, "logo": 8154, "271": 25103, "lawyers": 9559, "amber": 8994, "greaves": 27808, "tornadoes": 22668, "\u8fb6": 1956, "brandenburg": 16426, "actor": 3364, "trousers": 15292, "disciple": 17849, "krishna": 10871, "catastrophic": 23546, "_": 1035, "canons": 21975, "##let": 7485, "leicestershire": 20034, "ich": 22564, "graduation": 7665, "inspections": 29589, "jesuits": 20297, "##tream": 25379, "##mme": 20058, "somali": 16831, "\u2013": 1516, "fingers": 3093, "opaque": 28670, "spain": 3577, "##nio": 27678, "##nies": 15580, "upheld": 16813, "mandated": 16714, "foods": 9440, "obama": 8112, "syndication": 26973, "##isms": 22556, "bryson": 26845, "entrance": 4211, "[unused785]": 790, "shows": 3065, "##vere": 28943, "issn": 23486, "dramatic": 6918, "ii": 2462, "abu": 8273, "1783": 15331, "kira": 15163, "##tar": 7559, "##cytes": 27321, "kazakh": 25907, "lagoon": 15825, "spire": 19823, "tak": 27006, "\u2010": 1513, "conversions": 25834, "##nob": 25083, "additions": 13134, "turkish": 5037, "corners": 8413, "prepare": 7374, "knives": 13227, "##kla": 26086, "adjust": 14171, "[unused35]": 36, "##tadt": 18808, "##yana": 16811, "eventual": 9523, "fragrance": 24980, "\u0917": 1317, "clara": 10254, "##ong": 5063, "andrei": 18125, "marion": 10115, "per": 2566, "crap": 10231, "organise": 22933, "ensued": 18942, "practised": 20439, "searches": 17193, "networks": 6125, "under": 2104, "##lellan": 25839, "##ote": 12184, "breathless": 16701, "##eal": 15879, "forewings": 13211, "yong": 18999, "souza": 26598, "##\u0ba9": 29923, "bjp": 24954, "bp": 17531, "[unused66]": 67, "symbolism": 22050, "illnesses": 24757, "8th": 5893, "paintings": 5265, "cyprus": 9719, "haley": 16624, "[unused229]": 234, "restricted": 7775, "retro": 22307, "turmoil": 17930, "honoring": 21494, "packet": 14771, "valid": 9398, "champs": 29008, "blend": 12586, "accurate": 8321, "dedication": 12276, "shiva": 12535, "whites": 12461, "##ksha": 28132, "[unused552]": 557, "pointe": 26119, "developer": 9722, "adorable": 23677, "owner": 3954, "##igate": 28731, "[unused975]": 980, "aid": 4681, "robbery": 13742, "##lance": 23078, "nbl": 28013, "outrage": 19006, "##ogan": 21131, "##tl": 19646, "[unused456]": 461, "[unused804]": 809, "slavery": 8864, "##rana": 16737, "reins": 19222, "patterson": 12424, "registrar": 24580, "alicia": 15935, "governments": 6867, "fifteen": 5417, "renewal": 14524, "florian": 29517, "puget": 27879, "walnut": 18489, "asks": 5176, "sneakers": 28130, "##\u0dc0": 29943, "##haw": 14238, "char": 25869, "fireplace": 13788, "solar": 5943, "drafts": 28967, "bahn": 17392, "lashes": 16008, "distributed": 5500, "libraries": 8860, "##ating": 5844, "ethan": 6066, "recession": 19396, "##ua": 6692, "bonds": 9547, "49": 4749, "ranging": 7478, "prisons": 15996, "##tling": 15073, "linux": 11603, "##3d": 29097, "pieces": 4109, "deemed": 8357, "cap": 6178, "swamp": 11963, "ch": 10381, "\u0e15": 1411, "##hosh": 26643, "generations": 8213, "\u76f8": 1919, "68": 6273, "##jn": 22895, "##rsten": 19020, "unauthorized": 24641, "\u5b89": 1820, "vimes": 28482, "surrounds": 20626, "##ylus": 18871, "ljubljana": 21588, "guadalupe": 23529, "skipping": 25978, "taipei": 14004, "##dae": 6858, "dance": 3153, "di": 4487, "##jhl": 29001, "basalt": 26343, "initiative": 6349, "napkin": 20619, "relief": 4335, "reforms": 8818, "archdiocese": 12658, "electrically": 29103, "diaspora": 18239, "lowers": 24950, "plays": 3248, "staircase": 10714, "[unused750]": 755, "\u2154": 1582, "##iii": 28954, "transform": 10938, "patrol": 6477, "movements": 5750, "sheldon": 19369, "chuckle": 15375, "nicknamed": 9919, "morphology": 19476, "data": 2951, "muscled": 24909, "them": 2068, "##\u308b": 30213, "##\u00b6": 29660, "[unused980]": 985, "preaching": 17979, "blindness": 26290, "cloth": 8416, "chronicle": 9519, "geographically": 20969, "##ty": 3723, "##mation": 28649, "bangs": 28490, "stumbling": 19730, "shipment": 22613, "2nd": 3416, "defendant": 13474, "\u1161": 1470, "feature": 3444, "cola": 15270, "volley": 28073, "horst": 28565, "helped": 3271, "##ides": 8621, "necessary": 4072, "bournemouth": 22882, "fraud": 9861, "pegasus": 26606, "tug": 12888, "aroma": 23958, "jacket": 6598, "objective": 7863, "zoo": 9201, "mentoring": 29192, "##\u0632": 29823, "##nova": 13455, "landmarks": 16209, "leave": 2681, "sneaking": 20727, "thirsty": 24907, "easton": 21636, "saturday": 5095, "vi": 6819, "championships": 3219, "convey": 16636, "whichever": 29221, "##%": 29616, "authored": 8786, "inviting": 15085, "##fies": 14213, "endurance": 14280, "photograph": 9982, "textiles": 18762, "##n": 2078, "\u0f63": 1435, "boogie": 21495, "fx": 23292, "##rence": 24413, "phoebe": 18188, "sure": 2469, "baptized": 19775, "surprise": 4474, "distributing": 20083, "citizen": 6926, "opium": 21075, "tsar": 17608, "\u05e8": 1265, "##orum": 20527, "labs": 13625, "[unused818]": 823, "horsepower": 15149, "safely": 9689, "wildcats": 19495, "commotion": 23960, "thyroid": 29610, "sonata": 14681, "fifties": 25942, "##oran": 18842, "ambiguous": 20080, "inch": 4960, "solid": 5024, "prefect": 19402, "mmm": 25391, "herbert": 7253, "fatally": 26292, "nationalities": 24904, "leisure": 12257, "##dance": 25514, "humorous": 14742, "rs": 12667, "wwe": 11700, "manufacture": 9922, "novelist": 9974, "rick": 6174, "2021": 25682, "inter": 6970, "skirts": 18184, "##lore": 20186, "pulmonary": 21908, "[unused85]": 86, "baptiste": 17329, "buy": 4965, "deco": 21933, "##udi": 21041, "equipped": 6055, "##nus": 10182, "##90": 21057, "shapes": 10466, "[unused405]": 410, "incapable": 19907, "shudder": 18261, "covered": 3139, "lai": 21110, "attempting": 7161, "regal": 21279, "retention": 20125, "arte": 16185, "##elles": 22869, "##ulum": 25100, "joel": 8963, "hallway": 6797, "ole": 15589, "##reus": 23446, "sums": 20571, "##mine": 11233, "sole": 7082, "bastards": 21123, "##\u201d": 30059, "eugene": 8207, "[unused831]": 836, "decks": 19963, "[unused337]": 342, "##\u3082": 30207, "cigar": 19135, "peterborough": 17587, "cicero": 23080, "dockyard": 24874, "venetian": 15510, "##dale": 5634, "##uy": 26230, "intention": 6808, "haitian": 21404, "dorm": 19568, "freedom": 4071, "##ump": 24237, "add": 5587, "mallory": 20468, "musically": 21385, "anymore": 4902, "hanover": 14393, "\u222a": 1605, "authorship": 26324, "quran": 21288, "\u2606": 1621, "mil": 23689, "stationed": 8895, "\u516c": 1772, "worldwide": 4969, "enhancement": 22415, "flights": 7599, "1807": 13206, "sperm": 18047, "disturbances": 24535, "labor": 4450, "##nikov": 22576, "upstate": 29530, "runes": 29161, "screenplay": 9000, "whore": 17219, "pumpkin": 25730, "subsidies": 21762, "##cote": 19800, "\u0932": 1334, "misses": 22182, "quinlan": 28451, "armistice": 19125, "booked": 17414, "reckon": 29072, "repealed": 21492, "##ave": 10696, "idiots": 28781, "baskets": 25946, "ok": 7929, "intersection": 6840, "sequels": 25815, "affair": 6771, "##gill": 19791, "gerard": 11063, "filtered": 21839, "interesting": 5875, "ono": 21058, "[unused167]": 172, "imprint": 15738, "substantially": 12381, "batman": 8942, "wagons": 14525, "cyrillic": 15522, "absolutely": 7078, "\u091f": 1320, "analyst": 12941, "believing": 8929, "train": 3345, "providing": 4346, "elaborated": 25187, "##\u5fd7": 30377, "\u1165": 1472, "qu": 24209, "##\u660e": 30391, "prick": 24858, "meaningless": 25120, "armor": 8177, "morton": 11164, "mfa": 26913, "##\u211d": 30107, "1757": 22621, "coup": 8648, "grams": 20372, "##\u0255": 29680, "occupation": 6139, "recounts": 23412, "##lidae": 21595, "socially": 14286, "calling": 4214, "##ook": 14659, "##plex": 19386, "[unused781]": 786, "danube": 16212, "physics": 5584, "##jack": 17364, "vanishing": 24866, "111": 11118, "capture": 5425, "santiago": 8728, "impacted": 19209, "poor": 3532, "interned": 26345, "conviction": 10652, "disagreed": 18335, "##link": 13767, "[unused381]": 386, "##aged": 18655, "martyrs": 18945, "reader": 8068, "seems": 3849, "fox": 4419, "\u4fdd": 1766, "[unused714]": 719, "##world": 11108, "diplomats": 23473, "rc": 22110, "inherit": 22490, "1924": 4814, "salvador": 10582, "##hue": 20169, "castillo": 19371, "carnival": 11485, "patted": 11930, "stadion": 20756, "azerbaijani": 18325, "drugs": 5850, "editors": 10195, "test": 3231, "outright": 13848, "huge": 4121, "module": 11336, "demands": 7670, "##nka": 25804, "[unused287]": 292, "treated": 5845, "##gler": 17420, "##inkles": 28562, "##lc": 15472, "jace": 10352, "thirteen": 7093, "\u0935": 1335, "tunisian": 22946, "argument": 6685, "##sse": 11393, "susceptible": 18002, "1990": 2901, "##lai": 19771, "hollywood": 5365, "[unused79]": 80, "accuse": 26960, "[unused577]": 582, "reluctantly": 11206, "orbital": 13943, "49ers": 18156, "debuts": 26740, "median": 3991, "##zel": 12638, "extravagant": 27856, "transvaal": 28336, "##chee": 25923, "haven": 4033, "sarajevo": 18354, "unite": 15908, "fairy": 8867, "##rson": 17753, "reinforced": 11013, "viable": 14874, "bracket": 21605, "threatens": 17016, "tossing": 15021, "paxton": 27765, "contractual": 27948, "##ony": 16585, "harmony": 9396, "\u7cf9": 1934, "##44": 22932, "\u306f": 1672, "##eda": 11960, "respect": 4847, "ru": 21766, "leaked": 15748, "neurons": 15698, "quentin": 15969, "sampson": 22041, "##athic": 20972, "##\u2660": 30150, "[unused102]": 107, "reorganized": 14137, "##quette": 29416, "[unused761]": 766, "[unused595]": 600, "rematch": 18229, "[unused488]": 493, "geologic": 22125, "stranger": 7985, "torches": 24711, "pajamas": 27621, "seize": 15126, "illegitimate": 18102, "candle": 13541, "glad": 5580, "1782": 16890, "##ometer": 18721, "coaches": 7850, "hackett": 28630, "saved": 5552, "affirmed": 19768, "\u1111": 1468, "##bai": 26068, "[unused853]": 858, "pass": 3413, "adulthood": 20480, "##ay": 4710, "charitable": 11128, "##lars": 28695, "[unused740]": 745, "cheese": 8808, "gunn": 22079, "walden": 24834, "##\u2090": 30089, "\u209a": 1569, "entrepreneurs": 17633, "##kins": 14322, "knowles": 22815, "mercenary": 22146, "riley": 7546, "leading": 2877, "balfour": 27560, "##ettes": 26592, "##miya": 29312, "bowler": 14999, "42nd": 21373, "again": 2153, "cure": 9526, "nouns": 19211, "danes": 27476, "outstanding": 5151, "programme": 4746, "offer": 3749, "tram": 12517, "franciscan": 19420, "technically": 10892, "malls": 25943, "auxiliary": 9830, "watery": 28259, "desirable": 16166, "squash": 18794, "budgets": 26178, "mets": 15253, "nietzsche": 28898, "penelope": 18641, "1849": 9037, "toss": 10055, "italiana": 28059, "[unused549]": 554, "measures": 5761, "roses": 10529, "[unused501]": 506, "wiley": 18825, "1760": 19096, "blankly": 26344, "lauren": 10294, "rendezvous": 20558, "conclude": 16519, "cruise": 8592, "thoughts": 4301, "##aga": 16098, "saturn": 14784, "fumbled": 20054, "can": 2064, "mendez": 28950, "##ame": 14074, "centred": 16441, "imperialism": 28087, "liking": 16663, "museum": 2688, "1731": 28446, "lagos": 16738, "preston": 8475, "productions": 5453, "ann": 5754, "orphaned": 27093, "161": 17365, "supplied": 8127, "[unused805]": 810, "resulted": 4504, "##kell": 18690, "overseas": 6931, "##uge": 22890, "rolls": 9372, "##heads": 13038, "seneca": 21224, "radiated": 23000, "##bilis": 27965, "austrian": 6161, "reflecting": 10842, "nairobi": 21124, "selective": 13228, "##rod": 14127, "flavors": 26389, "structured": 14336, "prakash": 22233, "##\uff1f": 30520, "carl": 5529, "god": 2643, "##33": 22394, "gs": 28177, "fig": 20965, "theodor": 21448, "comes": 3310, "peaks": 11373, "##ios": 10735, "appealing": 16004, "case": 2553, "##beam": 28302, "josephine": 16117, "##lr": 20974, "##elli": 13348, "controlling": 9756, "hesitate": 16390, "reprise": 16851, "towers": 7626, "seizure": 18634, "[unused120]": 125, "dripped": 22526, "dominance": 13811, "stalls": 19753, "whispered": 3990, "1789": 13739, "[unused898]": 903, "trademark": 11749, "captains": 15755, "prefix": 17576, "removal": 8208, "expand": 7818, "achievements": 10106, "##vating": 26477, "ambitious": 12479, "completes": 28123, "count": 4175, "paste": 19351, "##zer": 6290, "ferry": 7115, "mirage": 21483, "seller": 14939, "##growth": 26982, "static": 10763, "##viere": 27087, "ufo": 24321, "vulcan": 25993, "lewis": 4572, "odd": 5976, "pull": 4139, "indictment": 24265, "##tou": 24826, "clutches": 29497, "jumper": 21097, "prefers": 19233, "skull": 7412, "boards": 7923, "vastly": 24821, "##tler": 25091, "parana": 28383, "##par": 19362, "identifying": 12151, "[unused691]": 696, "stubble": 26816, "ata": 29533, "invisible": 8841, "reply": 7514, "gil": 13097, "upwards": 14873, "##ilis": 24411, "mast": 15429, "played": 2209, "tones": 12623, "apocalypse": 16976, "warrior": 6750, "\u2092": 1562, "##sitor": 28307, "isla": 25340, "alvaro": 24892, "vikram": 29063, "##ud": 6784, "leinster": 15684, "wealthiest": 27809, "\u0996": 1354, "enjoy": 5959, "##zier": 21548, "ile": 17869, "emancipation": 22656, "rico": 7043, "shrines": 22562, "sane": 22856, "calhoun": 22982, "leads": 5260, "discover": 7523, "chanting": 22417, "restrained": 19868, "fitz": 27706, "\u3002": 1636, "agrees": 10217, "ridges": 16386, "surrounding": 4193, "guides": 12468, "jules": 11044, "bonding": 19882, "##ara": 5400, "mangrove": 29340, "lindsay": 12110, "treasurer": 10211, "delegation": 10656, "gigs": 20929, "##ij": 28418, "##\u2085": 30081, "exposition": 13080, "ren": 14916, "[unused398]": 403, "skeptical": 18386, "show": 2265, "controls": 7711, "jefferson": 7625, "wei": 11417, "##dust": 24220, "diva": 25992, "employees": 5126, "aggregator": 24089, "indeed": 5262, "scott": 3660, "##aia": 27131, "road": 2346, "cheeks": 6029, "schoolhouse": 26301, "poll": 8554, "[unused485]": 490, "noah": 7240, "lap": 5001, "##urer": 27595, "link": 4957, "##rch": 11140, "multiplied": 28608, "naked": 6248, "##mise": 28732, "historian": 5272, "design": 2640, "##eed": 13089, "rwanda": 17591, "gov": 18079, "morality": 16561, "schools": 2816, "sectional": 27197, "psi": 17816, "commenced": 8420, "discs": 15303, "item": 8875, "[unused732]": 737, "absolute": 7619, "lau": 21360, "##56": 26976, "sniff": 27907, "hostess": 22566, "coded": 22402, "1932": 4673, "##iere": 21253, "##kor": 21815, "leger": 26523, "costello": 21015, "ostensibly": 23734, "##sies": 14625, "thankful": 18836, "track": 2650, "disney": 6373, "romeo": 12390, "pressing": 7827, "patented": 16719, "vast": 6565, "eds": 11985, "mystery": 6547, "script": 5896, "inland": 9514, "handel": 21465, "\u82f1": 1941, "saturdays": 18860, "##\u308a": 30212, "shifter": 18189, "pigeon": 16516, "67": 6163, "##eville": 21187, "rack": 14513, "seminars": 17239, "exchequer": 28889, "grenada": 29153, "united": 2142, "##nr": 16118, "##nson": 15551, "gymnasium": 11288, "man": 2158, "picturesque": 23273, "shy": 11004, "##\uff0d": 30516, "luz": 26214, "invading": 17657, "fluffy": 27036, "chromosomes": 26874, "imp": 17727, "tyrone": 18770, "clifton": 16271, "##rooms": 29020, "ignoring": 9217, "liter": 23675, "perfume": 17013, "campground": 29144, "##scopic": 24895, "ricardo": 13559, "goddamn": 16477, "whitaker": 27049, "paced": 13823, "worm": 15485, "oppose": 15391, "samson": 18375, "1820s": 28504, "##iled": 18450, "combatants": 26622, "reckless": 18555, "##rso": 25301, "forearms": 27323, "hymns": 17777, "##\u5bbf": 30352, "1703": 28366, "##\u0259": 29681, "artistic": 6018, "henri": 8863, "strapped": 18019, "virtual": 7484, "##woman": 10169, "ministers": 7767, "digital": 3617, "newbury": 29457, "##\u0629": 19433, "[unused608]": 613, "bricks": 14219, "##cision": 28472, "##mp": 8737, "continuous": 7142, "robertson": 9923, "##nded": 25848, "##ssel": 21218, "domes": 26193, "portion": 4664, "jewel": 13713, "appropriations": 22713, "screwed": 14180, "bangkok": 12627, "##aceae": 18339, "watson": 7908, "arresting": 28427, "##jah": 18878, "firmly": 7933, "foreman": 18031, "##chus": 16194, "##raf": 27528, "bounty": 17284, "gradual": 16612, "harpsichord": 26504, "lyrics": 4581, "bull": 7087, "dissertation": 14481, "266": 25162, "race": 2679, "##itative": 29293, "##rar": 19848, "thesis": 9459, "580": 23712, "patent": 7353, "surveyor": 17169, "##igny": 26978, "mixes": 21109, "projected": 11310, "[unused962]": 967, "sheath": 21867, "sherwood": 19427, "seo": 27457, "recalled": 7383, "freeway": 10846, "##tick": 26348, "outlawed": 29131, "woven": 17374, "prospects": 16746, "brew": 24702, "carlisle": 13575, "condom": 20910, "yes": 2748, "schooling": 14118, "fifteenth": 16249, "##oic": 19419, "##ect": 22471, "deficiency": 18888, "martian": 20795, "serialized": 27289, "[unused927]": 932, "##dgets": 28682, "lange": 21395, "##worth": 5172, "sharon": 10666, "unionist": 17104, "batted": 12822, "bologna": 14102, "synthesized": 23572, "##ode": 10244, "optics": 21026, "hopes": 8069, "dodged": 28339, "406": 27433, "irs": 25760, "##\u05e3": 29806, "spartak": 28560, "spurred": 22464, "##\u30ca": 30241, "##hom": 23393, "holiness": 27692, "radial": 15255, "##yar": 13380, "chilly": 24222, "monitors": 15410, "covenant": 16077, "relaunched": 26391, "ict": 25891, "##\u02b0": 29706, "emergence": 14053, "massage": 21881, "##\u4e95": 30280, "dex": 20647, "andrea": 8657, "mora": 26821, "haas": 22996, "rankin": 25772, "sings": 10955, "repeal": 21825, "##formed": 29021, "knit": 22404, "suspicious": 10027, "worth": 4276, "mina": 19808, "trance": 16588, "rounds": 6241, "utilize": 16462, "vigorously": 22400, "goodnight": 22708, "functionality": 15380, "parma": 19177, "marsh": 9409, "\u2083": 1550, "##rea": 16416, "clues": 15774, "helium": 22764, "##icio": 27113, "231": 20304, "gulped": 25411, "insistence": 20616, "both": 2119, "submerged": 13563, "clown": 15912, "graders": 23256, "underside": 17313, "whitney": 9809, "crown": 4410, "\u043b": 1190, "##ly": 2135, "##phonic": 27385, "steppe": 29096, "1618": 29029, "##keeping": 18321, "vicious": 13925, "100": 2531, "miguel": 8374, "xvi": 16855, "imported": 10964, "pivotal": 20369, "##nity": 22758, "permits": 14245, "##\u0565": 29770, "bass": 3321, "reclaim": 24104, "lifeboat": 23450, "##esian": 25253, "##had": 16102, "sulawesi": 29078, "narratives": 22143, "cortex": 17132, "##\u092d": 29866, "prepares": 20776, "wavelengths": 29263, "howard": 4922, "maid": 10850, "##42": 20958, "damage": 4053, "##ntino": 25318, "doug": 8788, "randy": 9744, "rendered": 10155, "rune": 23276, "curving": 21439, "deserve": 10107, "visitor": 10367, "moat": 25266, "maturity": 16736, "employing": 15440, "entirety": 15700, "gesture": 9218, "rhythm": 6348, "cultivated": 13237, "[unused255]": 260, "isbn": 3175, "##\u2088": 30084, "coconut": 16027, "stairs": 5108, "drown": 19549, "##mu": 12274, "longitude": 20413, "maintain": 5441, "unexpectedly": 14153, "defensive": 5600, "##yam": 14852, "barge": 19398, "##ov": 4492, "kyiv": 25669, "steel": 3886, "1957": 3890, "mongol": 17450, "stands": 4832, "espionage": 21003, "apartment": 4545, "innovation": 8144, "derivative": 13819, "piloted": 27220, "honolulu": 16598, "significant": 3278, "desired": 9059, "forests": 6138, "risen": 13763, "detachment": 11009, "##rger": 25858, "farming": 7876, "sharma": 14654, "unison": 18732, "assisting": 13951, "[unused61]": 62, "confused": 5457, "dubai": 11558, "##stems": 29189, "##bbling": 15343, "baltimore": 6222, "melvin": 20993, "\u00ac": 1078, "fortunate": 19590, "fought": 4061, "molecules": 10737, "originate": 21754, "ushered": 23815, "retirement": 5075, "##erative": 25284, "dwarfs": 28984, "##vision": 17084, "englishman": 25244, "texas": 3146, "enrique": 15769, "1952": 3999, "##urs": 9236, "vocals": 2955, "ct": 14931, "\u00b9": 1088, "defects": 18419, "##sit": 28032, "compilations": 22754, "outstretched": 21059, "snort": 26759, "vengeance": 14096, "consuming": 15077, "1981": 3261, "stab": 17079, "slender": 10944, "feel": 2514, "##\u02b8": 29710, "sesame": 23605, "cancers": 25409, "ashamed": 14984, "wrap": 10236, "cbn": 21824, "##nell": 9091, "safari": 23591, "chesterfield": 22699, "harden": 28751, "pasha": 14292, "[unused643]": 648, "##\u02e4": 29719, "nils": 27282, "tied": 5079, "anarchy": 26395, "ghent": 24202, "runaway": 19050, "##\u2192": 30113, "handy": 18801, "cecilia": 18459, "##mel": 10199, "goldman": 17765, "##\u5143": 30295, "cotton": 6557, "atop": 10234, "pinch": 18392, "hardcover": 20990, "bei": 21388, "nolan": 13401, "sec": 10819, "greeted": 11188, "present": 2556, "kayla": 26491, "1915": 4936, "specially": 11974, "graeme": 21840, "192": 17613, "pol": 14955, "\u06be": 1307, "##uma": 12248, "unarmed": 23206, "topping": 22286, "\u1d40": 1495, "rbis": 23583, "growls": 27825, "tech": 6627, "casualty": 19844, "usher": 20774, "salt": 5474, "sword": 4690, "##lain": 15987, "subsidiary": 7506, "##\u3051": 30180, "mutation": 16221, "nationalism": 14594, "\u00f8": 1100, "howl": 22912, "midi": 22265, "delivering": 12771, "jason": 4463, "##by": 3762, "attend": 5463, "lobe": 21833, "contemplated": 23133, "1883": 7257, "ceo": 5766, "chapel": 4970, "christine": 10941, "landfill": 28382, "##uram": 27618, "crippled": 24433, "[unused773]": 778, "address": 4769, "inhibitors": 25456, "beverages": 21705, "[unused575]": 580, "sentiments": 23541, "bra": 11655, "journal": 3485, "##uche": 19140, "cisco": 26408, "coma": 16571, "artery": 16749, "frigates": 22833, "irish": 3493, "symphonic": 18957, "[unused232]": 237, "[unused906]": 911, "engraved": 16328, "investing": 19920, "angles": 12113, "elite": 7069, "twain": 24421, "implies": 12748, "##nation": 9323, "undergo": 13595, "tin": 9543, "sabha": 11200, "##tones": 11115, "assortment": 26285, "denise": 15339, "jailed": 21278, "sonic": 12728, "arabian": 13771, "kellogg": 26129, "atlanta": 5865, "nostalgia": 26968, "##uddin": 17375, "bride": 8959, "##tropical": 25528, "redwood": 27552, "\u5e7f": 1842, "deception": 17575, "magistrates": 23007, "7th": 5504, "economic": 3171, "##vn": 16022, "monroe": 9747, "posts": 8466, "protocols": 16744, "tasked": 13487, "craters": 27561, "crossover": 16335, "realization": 12393, "##s": 2015, "encouragement": 15846, "##uin": 20023, "admission": 9634, "posthumously": 12770, "##olic": 23518, "##holding": 23410, "bundesliga": 14250, "loses": 12386, "access": 3229, "gospel": 8036, "haute": 18535, "[unused855]": 860, "pounds": 7038, "manpower": 22039, "twin": 5519, "move": 2693, "sleep": 3637, "sheriff": 6458, "clinging": 17892, "adler": 17969, "marvel": 8348, "[unused94]": 95, "banners": 23562, "ah": 6289, "##rane": 18053, "poland": 3735, "progresses": 22901, "##anger": 25121, "##lean": 20898, "soldiers": 3548, "strasbourg": 18104, "\u207b": 1545, "##ran": 5521, "##aan": 14634, "coined": 13279, "knockout": 11369, "intended": 3832, "[unused737]": 742, "##vial": 18660, "proved": 4928, "fearless": 22518, "gabled": 26182, "ska": 24053, "giles": 13287, "##market": 20285, "jewelry": 11912, "\u4e95": 1754, "[unused984]": 989, "##lard": 20822, "join": 3693, "member": 2266, "staffed": 21121, "husky": 18758, "##rica": 14735, "playground": 14705, "##ulu": 20391, "slipping": 11426, "##kovic": 14733, "possibilities": 12020, "40th": 16541, "crypt": 19888, "##ancy": 11656, "squadrons": 11435, "##oma": 9626, "raw": 6315, "scoring": 4577, "viewpoint": 21386, "strain": 10178, "##c": 2278, "##way": 4576, "ambushed": 22168, "drury": 25663, "shared": 4207, "gp": 14246, "amtrak": 20208, "converse": 23705, "proposals": 10340, "socialist": 6102, "telecommunication": 25958, "[unused234]": 239, "aubrey": 18961, "##mia": 10092, "traded": 7007, "1875": 7466, "darted": 14051, "\u2074": 1538, "##sities": 24279, "##vate": 16952, "\u3008": 1637, "##\u09a4": 29898, "bun": 21122, "shifted": 5429, "thorne": 14296, "[unused304]": 309, "party": 2283, "julian": 6426, "\u30a6": 1696, "##stead": 25647, "corporal": 14265, "ec": 14925, "\u5bae": 1824, "sunny": 11559, "expressway": 11720, "borough": 5538, "bot": 28516, "blaming": 24114, "positions": 4460, "\u624b": 1858, "colonization": 18962, "pour": 10364, "##zzling": 20838, "bypass": 11826, "horatio": 27752, "##chment": 22729, "1898": 6068, "sentences": 11746, "1835": 10150, "[unused766]": 771, "##upt": 29441, "##vington": 21827, "hopefully": 11504, "##\u062e": 29821, "##far": 14971, "frankish": 26165, "##jad": 27875, "slid": 4934, "turrets": 21088, "vocational": 13099, "blessing": 13301, "citadel": 15364, "shareholders": 15337, "1819": 12552, "auditor": 20964, "pbs": 13683, "##eye": 17683, "significance": 7784, "teammate": 10809, "envy": 21103, "##ub": 12083, "##icum": 22167, "##\u09c7": 29917, "spectator": 21027, "groaning": 24781, "juno": 20788, "shield": 6099, "linen": 17517, "thick": 4317, "wider": 7289, "thieves": 15862, "##\u8449": 30469, "distant": 6802, ">": 1028, "##llet": 22592, "discarded": 15105, "quintet": 18109, "williamson": 14333, "knoxville": 20021, "savannah": 10891, "##ma": 2863, "oleg": 25841, "##bos": 15853, "cyber": 16941, "lighted": 26390, "fiji": 11464, "interpret": 17841, "[unused699]": 704, "recruit": 13024, "memorial": 3986, "##loading": 18570, "cardiovascular": 22935, "##kis": 14270, "##xed": 19068, "workforce": 14877, "\u30ed": 1735, "admiring": 24588, "murder": 4028, "peruvian": 15432, "##cule": 21225, "govern": 21208, "maternal": 11062, "bal": 28352, "##\u5bb6": 30351, "carrying": 4755, "scientific": 4045, "sharply": 9249, "##gm": 21693, "accomplishments": 17571, "\u0b9a": 1383, "hurricane": 7064, "factories": 11123, "[unused747]": 752, "departmental": 28912, "mongols": 22235, "##raine": 26456, "##tility": 18724, "##fan": 15143, "approached": 5411, "business": 2449, "molly": 9618, "refinery": 21034, "brazilian": 6142, "sexes": 21024, "yelling": 13175, "mistress": 10414, "math": 8785, "##\u05db": 29798, "are": 2024, "wehrmacht": 23443, "##47": 22610, "arise": 13368, "##iary": 17302, "policemen": 19809, "##orescence": 20030, "loans": 10940, "##chon": 24561, "\u00f7": 1099, "feeding": 8521, "compensated": 29258, "hoisted": 27269, "twists": 21438, "kitchen": 3829, "##ine": 3170, "1943": 3826, "grading": 26886, "occurrence": 14404, "pump": 10216, "##\u0443": 29748, "exciting": 10990, "floats": 24885, "admissions": 20247, "##esh": 9953, "##ins": 7076, "launcher": 22742, "interview": 4357, "blurted": 18751, "##folding": 21508, "240": 11212, "pagan": 14318, "##rcus": 29006, "boone": 15033, "[unused166]": 171, "met": 2777, "admitted": 4914, "herbs": 17561, "praising": 15838, "##\u7248": 30433, "hurried": 9520, "handling": 8304, "successive": 11165, "\u0570": 1228, "delay": 8536, "paige": 17031, "murdered": 7129, "bolt": 10053, "muse": 18437, "visibility": 16476, "##cellular": 16882, "evidently": 15329, "milne": 24377, "squeezing": 15328, "ants": 16111, "dew": 24903, "exits": 16639, "detrimental": 29172, "quote": 14686, "##\u76ee": 30444, "schemes": 11683, "motown": 22654, "destiny": 10461, "1800": 9807, "trapping": 22977, "battered": 17548, "communicate": 10639, "repertoire": 13646, "[unused623]": 628, "insults": 23862, "analytic": 23521, "marketplace": 18086, "##we": 8545, "##\u1d9c": 30046, "hasn": 8440, "##~": 29643, "erik": 10240, "havre": 28890, "mercedes": 10793, "nestor": 25397, "ron": 6902, "southwest": 4943, "silvia": 27827, "bowman": 19298, "##\u02b7": 29709, "##erland": 22492, "suggest": 6592, "##\u0dbb": 29941, "stockings": 26412, "initiating": 26616, "foundry": 19853, "[unused507]": 512, "caller": 20587, "johor": 25268, "equally": 8053, "nyc": 16392, "tracking": 9651, "stress": 6911, "stranded": 15577, "oversized": 21698, "##dote": 23681, "\u4eee": 1761, "stomped": 21918, "shetland": 25552, "##cat": 11266, "277": 25578, "milford": 22622, "slightest": 15989, "though": 2295, "[unused289]": 294, "##itic": 18291, "potassium": 18044, "renovated": 10601, "##ckle": 19250, "awaiting": 15497, "tho": 27793, "broke": 3631, "elemental": 19529, "concession": 16427, "fused": 19660, "differentiated": 24374, "distributors": 22495, "wwf": 16779, "constellation": 15300, "milan": 6954, "##tip": 25101, "pursed": 21954, "##ego": 20265, "##vies": 25929, "pawn": 19175, "swear": 8415, "werewolves": 18306, "copy": 6100, "[unused753]": 758, "mere": 8210, "attachment": 14449, "##ad": 4215, "marred": 24563, "##umble": 26607, "[unused989]": 994, "[unused633]": 638, "##uid": 21272, "striker": 11854, "173": 19410, "[unused827]": 832, "assignments": 14799, "##rish": 18774, "##\u0111": 29671, "[unused557]": 562, "##ings": 8613, "##tails": 22081, "essays": 8927, "expecting": 8074, "gerald": 9659, "subgenus": 25356, "1667": 27643, "intensity": 8015, "walsh": 11019, "forbidden": 10386, "##wala": 23877, "##ifer": 23780, "failures": 15428, "##rned": 21119, "marathi": 18388, "dukes": 16606, "posted": 6866, "##zan": 13471, "leiden": 20329, "##park": 14432, "lift": 6336, "bulbs": 25548, "##nc": 12273, "camp": 3409, "defence": 4721, "glanced": 3887, "moses": 9952, "african": 3060, "racecourse": 15948, "dune": 21643, "\u7248": 1907, "keyboards": 6269, "scraping": 23704, "##tation": 12516, "sensitive": 7591, "##\u09b9": 29913, "colossal": 29523, "columns": 7753, "coordinate": 13530, "##vr": 19716, "roosevelt": 8573, "warped": 25618, "baldwin": 10970, "spans": 14798, "##bbs": 17226, "[CLS]": 101, "[unused52]": 53, "woke": 8271, "##wara": 11872, "sony": 8412, "wired": 17502, "liquidation": 28763, "continuously": 10843, "##bey": 19182, "invitation": 8468, "proctor": 28770, "rye": 20926, "##ango": 23422, "activity": 4023, "kildare": 24275, "petersen": 22615, "fluid": 8331, "[unused292]": 297, "submitted": 7864, "toro": 23790, "##code": 16044, "duffy": 17971, "tehsil": 20751, "mystic": 17477, "dealt": 9411, "trades": 14279, "sprayed": 25401, "[unused939]": 944, "aground": 29406, "##ky": 4801, "\u2193": 1586, "113": 12104, "railing": 15747, "##\u0987": 29885, "topography": 21535, "accreditation": 14893, "anglo": 7819, "tournament": 2977, "fide": 26000, "dietary": 23444, "suffering": 6114, "procedural": 24508, "##iy": 28008, "cesar": 14923, "many": 2116, "hermann": 12224, "##chaft": 29043, "spawned": 18379, "theatres": 13166, "benefited": 19727, "arranging": 19018, "\u09b9": 1377, "sho": 26822, "ignorance": 18173, "persistent": 14516, "trajectory": 22793, "##orra": 24285, "sailor": 11803, "##eur": 11236, "##wald": 11191, "##\u0633": 29824, "doctor": 3460, "command": 3094, "eliminated": 5892, "complexion": 28838, "bulgarian": 7643, "worker": 7309, "cater": 23488, "commissioned": 4837, "nationalists": 17934, "thomas": 2726, "##ron": 4948, "citizenship": 9068, "coward": 16592, "##\u58eb": 30333, "showed": 3662, "stationary": 17337, "ajax": 18176, "wood": 3536, "barrels": 13826, "buffet": 28305, "aleppo": 22973, "leadership": 4105, "##baldi": 28807, "##ml": 19968, "earnings": 16565, "canning": 24549, "[unused789]": 794, "erased": 23516, "tangible": 24600, "\u207f": 1546, "flinders": 29120, "##\u308d": 30215, "correlated": 23900, "reservations": 17829, "tanner": 12780, "bean": 14068, "mormon": 15111, "marley": 20326, "punching": 19477, "[unused784]": 789, "calcium": 13853, "silk": 6953, "warehouse": 9746, "tolerate": 19242, "clinched": 18311, "kick": 5926, "guido": 20239, "slovak": 12747, "hosts": 6184, "socket": 22278, "closet": 9346, "oak": 6116, "\u961d": 1970, "recalls": 17722, "fauna": 15018, "corporate": 5971, "ipod": 26322, "association": 2523, "representative": 4387, "##uth": 14317, "influential": 6383, "wang": 7418, "decent": 11519, "gavin": 9448, "causal": 28102, "##lete": 25890, "wheeled": 17320, "cried": 6639, "##que": 4226, "astronaut": 19748, "robbins": 18091, "demonstrate": 10580, "mozambique": 16274, "litigation": 15382, "ito": 23333, "##his": 24158, "explored": 10641, "[unused1]": 2, "incorporated": 5100, "loomed": 24358, "subordinate": 15144, "##tail": 14162, "commuted": 26704, "\u02e4": 1154, "trucks": 9322, "fracture": 19583, "\u03b3": 1157, "ellison": 21513, "##\u2075": 30074, "mortal": 9801, "olds": 19457, "designs": 5617, "##laus": 28128, "factions": 13815, "remix": 6136, "##brick": 25646, "trams": 19216, "bombing": 8647, "dominion": 13738, "godfather": 23834, "##ard": 4232, "slots": 19832, "milwaukee": 9184, "##ng": 3070, "packing": 14743, "novgorod": 24338, "baccalaureate": 27802, "salmon": 11840, "##thest": 20515, "communist": 4750, "conservatoire": 29233, "grossed": 17500, "lyric": 13677, "ncaa": 5803, "ankles": 15392, "119": 13285, "harmon": 25546, "arabs": 14560, "sega": 16562, "##rti": 28228, "laugh": 4756, "##maid": 28478, "##vite": 25217, "rivera": 14043, "hips": 6700, "merlin": 15993, "museums": 9941, "rouge": 12801, "come": 2272, "planted": 8461, "willoughby": 24919, "easter": 10957, "\u00b7": 1087, "##logists": 18738, "shirley": 11280, "www": 7479, "##eak": 25508, "futile": 24495, "divorced": 9196, "tugs": 29306, "labelled": 18251, "entitled": 4709, "decorated": 7429, "episcopal": 9134, "stated": 3090, "##bot": 18384, "slacks": 27786, "honey": 6861, "proven": 10003, "unmanned": 24075, "padded": 20633, "covers": 4472, "lac": 18749, "rice": 5785, "duration": 9367, "rebels": 8431, "vested": 26003, "ghz": 29066, "marking": 10060, "lacrosse": 13488, "strategic": 6143, "concurrently": 15442, "2019": 10476, "apologies": 25380, "[unused380]": 385, "1999": 2639, "[unused617]": 622, "##hiro": 18334, "ending": 4566, "grit": 24842, "coa": 28155, "tasks": 8518, "maneuvers": 23802, "augustus": 11668, "bitten": 19026, "harding": 15456, "96": 5986, "\u0679": 1301, "mouthful": 28462, "role": 2535, "kitten": 18401, "##kle": 19099, "authority": 3691, "faintly": 18587, "fabulous": 18783, "##dicated": 26022, "##lav": 14973, "seymour": 13254, "nicole": 9851, "[unused758]": 763, "##form": 14192, "phelps": 20475, "golf": 5439, "volcano": 12779, "##nitz": 22792, "ucla": 12389, "daniel": 3817, "woods": 5249, "scarlett": 20862, "fluent": 19376, "tentatively": 19325, "albania": 10407, "alterations": 16705, "antarctic": 10227, "hesitant": 20221, "pictured": 15885, "411": 27517, "handsome": 8502, "ornate": 18099, "neuroscience": 23700, "pianist": 9066, "italics": 19408, "\u5bbf": 1826, "air": 2250, "##\u2261": 30134, "vinyl": 8877, "clergy": 11646, "buckinghamshire": 21712, "return": 2709, "eastenders": 28936, "grumbled": 17030, "##\u03c8": 29738, "assets": 7045, "compulsion": 27638, "duet": 11979, "haiti": 12867, "whitish": 16800, "charter": 6111, "##efe": 27235, "towns": 4865, "princely": 22771, "##gui": 25698, "shire": 13182, "255": 20637, "serials": 28172, "##\u5dde": 30362, "crawl": 13529, "hungary": 5872, "randolph": 13031, "rid": 9436, "continued": 2506, "temporary": 5741, "weekends": 13499, "##ful": 3993, "##bbing": 23200, "[unused572]": 577, "[unused954]": 959, "312": 21036, "leader": 3003, "smelled": 9557, "suzy": 28722, "sites": 4573, "\u0ba8": 1386, "furthermore": 7297, "represents": 5836, "identifies": 14847, "stability": 9211, "1899": 6166, "clubhouse": 22067, "phrases": 15672, "49th": 25726, "crosses": 7821, "waivers": 28654, "pillows": 17860, "consent": 9619, "cougars": 26317, "newspapers": 6399, "birds": 5055, "esa": 28776, "##\u1167": 30010, "luck": 6735, "##ima": 9581, "apprenticeship": 20448, "registered": 5068, "moments": 5312, "executed": 6472, "nate": 8253, "nitrogen": 14114, "purge": 24694, "mitsubishi": 19695, "stevenson": 13636, "picked": 3856, "sniper": 17515, "probing": 28664, "uss": 7234, "family": 2155, "\u5bfa": 1827, "##\u025b": 29275, "heroine": 18869, "principle": 6958, "trough": 23389, "1824": 11617, "click": 11562, "thirties": 26313, "colored": 6910, "civil": 2942, "mart": 20481, "bernie": 15941, "traverse": 20811, "republican": 3951, "alloys": 28655, "##\u20b1": 30103, "##nem": 25832, "##oi": 10448, "reproduce": 21376, "crash": 5823, "1965": 3551, "dem": 17183, "terraces": 25633, "[unused887]": 892, "postage": 22981, "restart": 23818, "kitty": 14433, "mahal": 27913, "meredith": 10635, "probation": 19703, "explaining": 9990, "writing": 3015, "##enay": 27727, "ioc": 25941, "##stellar": 29028, "shivered": 13927, "byron": 12234, "spontaneously": 27491, "fujian": 29551, "concerts": 6759, "sms": 22434, "rum": 19379, "celine": 24550, "sao": 7509, "shops": 7340, "dictator": 21237, "\u05e5": 1262, "zane": 6944, "dressing": 11225, "[unused634]": 639, "enough": 2438, "gun": 3282, "vh1": 26365, "##aries": 12086, "crystal": 6121, "mated": 28795, "separated": 5459, "paddy": 16063, "##aka": 11905, "themselves": 3209, "##acio": 21361, "presenter": 10044, "redesign": 25136, "decreased": 10548, "celia": 18020, "opportunities": 6695, "essentially": 7687, "feathers": 12261, "capitals": 15433, "diminished": 15911, "insists": 16818, "min": 8117, "##mouth": 14359, "jamal": 24132, "kirby": 15129, "admiration": 17005, "designation": 8259, "##\u2218": 30126, "proxy": 24540, "\u3042": 1646, "##as": 3022, "responsive": 26651, "strong": 2844, "sous": 27411, "interstate": 7553, "strait": 11195, "cameron": 7232, "[unused920]": 925, "##rity": 15780, "resemble": 13014, "bleed": 19501, "francais": 22357, "##\u53e3": 30314, "boundary": 6192, "brings": 7545, "call": 2655, "repeated": 5567, "huddled": 20258, "split": 3975, "rca": 12639, "milk": 6501, "valley": 3028, "pe": 21877, "##\u590f": 30334, "berger": 16758, "stakeholders": 22859, "umm": 26114, "muscles": 6650, "magnet": 16853, "nakamura": 23981, "tattoos": 18395, "nm": 13221, "miraculous": 26106, "rosalie": 29564, "##ouse": 15441, "145": 13741, "distances": 12103, "leather": 5898, "##ffled": 28579, "genevieve": 20245, "##mund": 25574, "##face": 12172, "courses": 5352, "160": 8148, "1666": 27407, "##ergy": 24395, "[unused137]": 142, "investors": 9387, "##fa": 7011, "hardened": 15015, "binds": 20817, "lbs": 20702, "##liness": 20942, "##ske": 17140, "##fat": 27753, "fascist": 14870, "crosby": 14282, "terms": 3408, "##ba": 3676, "nevertheless": 6600, "construction": 2810, "emilio": 18644, "##leton": 19263, "##zaki": 18637, "##\u2010": 30048, "pakistani": 9889, "iowa": 5947, "purchases": 17402, "inhabit": 21490, "specific": 3563, "##deck": 26547, "curtiss": 26431, "duc": 26363, "strands": 14119, "##edance": 29605, "ought": 11276, "##horse": 23024, "[unused147]": 152, "kilda": 22633, "lastly": 22267, "wen": 19181, "oliveira": 24263, "hastily": 15789, "sympathetic": 13026, "gym": 9726, "cup": 2452, "myanmar": 12620, "##wine": 21924, "##bm": 25526, "##lian": 15204, "erskine": 27139, "overlook": 27590, "cremated": 28376, "objection": 22224, "warehouses": 23319, "##rp": 14536, "##\u6b4c": 30412, "transforms": 21743, "##lined": 18194, "##ented": 14088, "exodus": 16388, "##\u10d4": 29978, "colts": 14390, "archives": 8264, "faces": 5344, "dennis": 6877, "ky": 18712, "collecting": 9334, "biological": 6897, "##;": 29628, "immersion": 27013, "##bf": 29292, "##ych": 17994, "hey": 4931, "dave": 4913, "##pg": 26952, "britannia": 24677, "##rion": 14772, "##outh": 17167, "nu": 16371, "abbott": 14455, "attic": 14832, "nwa": 15737, "volunteer": 6951, "educate": 16957, "imply": 19515, "armstrong": 9143, "metre": 7924, "napoleon": 8891, "alliances": 21277, "without": 2302, "lovers": 10205, "neighbourhood": 10971, "needed": 2734, "iraqi": 8956, "##gled": 11533, "##oteric": 29112, "louie": 17438, "ahmad": 10781, "##rbin": 27366, "##tion": 3508, "angie": 14835, "appearing": 6037, "conceded": 15848, "\u1d2e": 1491, "cambodian": 24417, "prophet": 12168, "##hoe": 14490, "2d": 14134, "1610": 25800, "axis": 8123, "brutally": 23197, "meek": 28997, "\u116a": 1476, "talented": 10904, "instant": 7107, "vomit": 23251, "renamed": 4096, "stafford": 15064, "gulp": 26546, "endangered": 10193, "1964": 3546, "[unused422]": 427, "synod": 15374, "underway": 14128, "brewster": 23009, "pmid": 20117, "johann": 8968, "doors": 4303, "regions": 4655, "puddle": 25081, "fleming": 13779, "rochelle": 25649, "##\u05e0": 29803, "cake": 9850, "oboe": 22523, "plunge": 25912, "##gle": 9354, "whoever": 9444, "\u2609": 1622, "[unused183]": 188, "gaa": 19930, "scooped": 20804, "raymond": 7638, "silenced": 25030, "##onic": 12356, "[unused68]": 69, "##saka": 29289, "[unused201]": 206, "afrikaans": 28673, "finely": 22126, "victorious": 13846, "listing": 10328, "fears": 10069, "forth": 5743, "##otte": 28495, "##\u03be": 29729, "drastic": 23956, "heating": 10808, "nine": 3157, "pennsylvania": 3552, "##oja": 22918, "precious": 9062, "\u05d1": 1242, "israelis": 28363, "kill": 3102, "prematurely": 28179, "\u304b": 1651, "esteem": 19593, "[unused160]": 165, "harlow": 22545, "##sov": 23230, "000": 2199, "rotate": 24357, "1200": 14840, "blackpool": 17444, "##linson": 25051, "gdp": 14230, "mao": 15158, "passionate": 13459, "painted": 4993, "eclipse": 13232, "##cous": 27199, "organs": 11595, "lancaster": 10237, "bigger": 7046, "##escence": 28964, "leaped": 16900, "our": 2256, "##\u9234": 30491, "cheer": 15138, "cambridgeshire": 24197, "chairs": 8397, "choked": 12444, "nowadays": 13367, "benoit": 21721, "criminal": 4735, "##aster": 24268, "ahmedabad": 27249, "[unused639]": 644, "darkest": 23036, "##uca": 18100, "##\u20b9": 30104, "##iology": 20569, "[unused528]": 533, "hinges": 25484, "##olf": 28027, "declaration": 8170, "accounts": 6115, "520": 19611, "se": 7367, "bishopric": 20664, "ellen": 9155, "##osaurus": 25767, "##\u30a2": 30219, "##iki": 17471, "##chester": 25322, "survives": 13655, "\u308a": 1686, "notably": 5546, "##boys": 24916, "thoroughly": 12246, "spots": 7516, "##ur": 3126, "spokane": 21878, "savings": 10995, "##\u03b7\u03c2": 29155, "quickly": 2855, "say": 2360, "very": 2200, "##ible": 7028, "siemens": 22108, "ledge": 18283, "##recht": 28109, "\u00be": 1093, "careless": 23358, "##\u00a8": 29651, "[unused959]": 964, "accessory": 25339, "treaty": 5036, "mariano": 22695, "separately": 10329, "testing": 5604, "##ctric": 22601, "[unused59]": 60, "##\u30ef": 30262, "information": 2592, "illuminated": 14640, "\u00fe": 1101, "##kur": 18569, "sophomore": 13758, "prison": 3827, "imagined": 8078, "pulsing": 23139, "\u2030": 1530, "aged": 4793, "yoo": 26823, "spotting": 27963, "##sic": 19570, "alan": 5070, "augusta": 13635, "nut": 17490, "##cula": 19879, "##crest": 25313, "grimes": 24865, "lansing": 22304, "\u064a": 1300, "costly": 17047, "[unused537]": 542, "golfer": 20601, "took": 2165, "##him": 14341, "##national": 25434, "conclusion": 7091, "deluxe": 15203, "shortest": 20047, "hers": 5106, "tuck": 18029, "[unused487]": 492, "companions": 11946, "archaic": 19261, "hires": 28208, "##inia": 23309, "curb": 13730, "keyboard": 9019, "verification": 22616, "folly": 26272, "pain": 3255, "152": 15017, "##lik": 18393, "##ded": 5732, "bandit": 25334, "1714": 25241, "aboard": 7548, "micro": 12702, "organised": 7362, "cadiz": 26342, "proto": 15053, "manufacturers": 8712, "medicinal": 20632, "pretty": 3492, "imagine": 5674, "##with": 24415, "cover": 3104, "carter": 5708, "reacher": 22970, "suck": 11891, "\u00b1": 1081, "##\u91ce": 30489, "reminder": 14764, "west": 2225, "suicidal": 26094, "proficiency": 26293, "crook": 19302, "conditional": 18462, "slight": 7263, "##\u10d7": 29980, "620": 23612, "benign": 28378, "##dam": 17130, "sylvie": 26009, "episodes": 4178, "footprints": 24629, "references": 7604, "marks": 6017, "disgrace": 29591, "governors": 11141, "missed": 4771, "stiffened": 16090, "tributary": 8914, "prototypes": 19599, "claimed": 3555, "##bi": 5638, "peasants": 13193, "cheryl": 19431, "ramos": 18882, "accommodated": 28959, "breaker": 24733, "##ield": 12891, "##\u30e5": 30255, "zoom": 24095, "##gnant": 27881, "punjabi": 17498, "##hai": 10932, "##vey": 12417, "mcdowell": 25005, "\u5b50": 1816, "finding": 4531, "logical": 11177, "lower": 2896, "scientists": 6529, "knowledge": 3716, "cancel": 17542, "[unused516]": 521, "words": 2616, "##lved": 26832, "yuri": 14331, "prominently": 14500, "amino": 13096, "tyre": 21904, "##\u0e40": 29959, "ontario": 4561, "catering": 18640, "flooded": 10361, "chuckled": 10252, "hangul": 19051, "bungalow": 27563, "##ds": 5104, "usable": 24013, "stylistic": 24828, "##dern": 25888, "also": 2036, "repression": 22422, "translator": 11403, "twice": 3807, "##stick": 21354, "headlined": 25214, "yates": 20356, "mary": 2984, "##9": 2683, "clergyman": 22232, "##lda": 15150, "trunk": 8260, "[unused657]": 662, "cattle": 7125, "kitchens": 26051, "proudly": 18067, "payment": 7909, "publish": 10172, "pavel": 18635, "blazing": 17162, "##key": 14839, "##\u1174": 30018, "oldies": 26826, "site": 2609, "comment": 7615, "abdullah": 14093, "##anta": 26802, "##quin": 12519, "##vic": 7903, "getting": 2893, "midlands": 13256, "orthodox": 6244, "restricting": 26996, "smell": 5437, "affluent": 22666, "donnie": 28486, "stocks": 15768, "trouble": 4390, "boycott": 17757, "frankly": 19597, "pretending": 12097, "bash": 24234, "unanimously": 15645, "\u0631": 1280, "dynasty": 5321, "legislator": 22964, "wetland": 22217, "##\u0627": 25573, "goes": 3632, "whig": 21632, "resistance": 5012, "em": 7861, "format": 4289, "gets": 4152, "stripping": 23987, "wallet": 15882, "\u0643": 1293, "zhao": 15634, "##scia": 27210, "[unused308]": 313, "teach": 6570, "##iss": 14643, "1736": 28192, "neptune": 21167, "tinged": 22683, "feed": 5438, "wryly": 28325, "births": 18250, "simi": 28684, "##cans": 26642, "airlift": 20019, "healing": 8907, "failed": 3478, "retorted": 24056, "sling": 27076, "highly": 3811, "fulfilling": 21570, "neared": 20832, "freight": 8441, "certain": 3056, "commissions": 13239, "##cave": 27454, "atomic": 9593, "1834": 10700, "division": 2407, "employs": 13495, "\u10d5": 1443, "47": 4700, "onion": 20949, "archived": 9749, "##hone": 27406, "blankets": 15019, "tipperary": 17333, "##21": 17465, "##osphere": 25444, "lithuanian": 10333, "speculated": 15520, "accordance": 10388, "##wright": 26460, "ax": 22260, "bishop": 3387, "fascination": 18987, "melissa": 9606, "\u09b8": 1376, "chicks": 20649, "pursuits": 23719, "chloride": 19057, "trickle": 26027, "##\u6cbb": 30426, "cottage": 9151, "##pile": 22090, "intervening": 26623, "daytona": 18226, "ticket": 7281, "defeats": 14222, "cinderella": 21686, "##shire": 7430, "coordinator": 10669, "costumes": 12703, "granite": 9753, "dismay": 20006, "promised": 5763, "zagreb": 12974, "[unused38]": 39, "nuns": 16752, "referendum": 9782, "degrees": 5445, "whereby": 13557, "albuquerque": 19334, "25th": 10965, "backseat": 19978, "benji": 27231, "knowing": 4209, "exploring": 11131, "##nsk": 25564, "##\u767d": 30441, "[unused490]": 495, "hereditary": 14800, "truss": 24224, "ordinance": 16692, "##lino": 25226, "fundraiser": 28536, "give": 2507, "canary": 17154, "gloves": 11875, "velvet": 10966, "##ibly": 17296, "portray": 17279, "zombie": 11798, "ud": 20904, "lucrative": 21115, "##cin": 15459, "##osed": 24768, "cowan": 25752, "embraced": 14218, "[unused779]": 784, "guided": 8546, "corpse": 11547, "denmark": 5842, "1833": 11040, "##ito": 9956, "##lly": 9215, "##dong": 17679, "irina": 25404, "redesigned": 17051, "retreating": 17512, "##rien": 23144, "fis": 27424, "sabrina": 21876, "##jak": 18317, "screams": 11652, "##\u4e0a": 30268, "faith": 4752, "\u044a": 1205, "enclosed": 10837, "ben": 3841, "runners": 7190, "realities": 22213, "undead": 17315, "ingredient": 21774, "rejection": 13893, "##ioms": 29178, "nightstand": 23135, "disdain": 25134, "aarhus": 29173, "##\u307f": 30204, "officials": 4584, "warship": 21905, "jolted": 28801, "anthropology": 12795, "##36": 21619, "interventions": 19388, "coffin": 13123, "cheltenham": 18763, "mcgill": 17919, "multinational": 20584, "sheds": 25999, "##ns": 3619, "chilled": 23362, "canyon": 8399, "depart": 18280, "lunar": 11926, "functions": 4972, "\u30ab": 1700, "alyssa": 26442, "dealers": 16743, "berman": 29482, "begin": 4088, "emergencies": 26360, "arcade": 10877, "sucking": 13475, "nehru": 23556, "compliment": 19394, "awaited": 19605, "cop": 8872, "rockefeller": 16696, "learners": 26262, "##\u00a6": 29649, "##bies": 20536, "furnished": 19851, "##dents": 28986, "strategies": 9942, "##fell": 23510, "vary": 8137, "todd": 6927, "islander": 12544, "willed": 22705, "attendance": 5270, "##ne": 2638, "brent": 12895, "##\u795e": 30451, "worst": 5409, "##nous": 18674, "##case": 18382, "##tee": 17389, "carvings": 22838, "elena": 9060, "corn": 9781, "solomon": 9168, "overcome": 9462, "##bling": 9709, "bases": 7888, "steamer": 18027, "doncaster": 18895, "##tek": 23125, "var": 13075, "entries": 10445, "deborah": 15555, "gui": 26458, "organization": 3029, "masses": 11678, "conclusions": 15306, "celtic": 8730, "cut": 3013, "eaton": 17642, "##bir": 17706, "mccoy": 16075, "shivers": 28464, "retain": 9279, "[unused578]": 583, "1821": 11723, "density": 4304, "biennial": 20313, "italian": 3059, "blinking": 15997, "af": 21358, "trader": 17667, "1970s": 3955, "##ttle": 26328, "##tidae": 21861, "##vale": 17479, "boeing": 10321, "##\u1165": 30008, "continues": 4247, "modes": 11583, "drift": 11852, "forgot": 9471, "horses": 5194, "practical": 6742, "ne": 11265, "circle": 4418, "##\u2044": 30070, "proposes": 17146, "stifled": 27146, "neighbours": 14754, "##\u03b9": 18199, "##urized": 28405, "snails": 13482, "anthology": 9637, "emphasize": 17902, "https": 16770, "pity": 12063, "orgasm": 13892, "terminating": 23552, "tung": 27079, "anime": 8750, "mickey": 11021, "certified": 7378, "relax": 9483, "wrong": 3308, "##rta": 13320, "blind": 6397, "brighter": 16176, "evaluate": 16157, "plump": 26731, "##\u30c1": 30236, "##morphism": 19539, "1896": 6306, "chris": 3782, "immigrants": 7489, "novelty": 21160, "tailored": 21727, "taxi": 10095, "constantinople": 11776, "\u5c07": 1828, "futures": 17795, "\u4e0b": 1743, "vertically": 20018, "sears": 18493, "##\u208d": 30087, "lingering": 15304, "##\u20a9": 30101, "##oons": 27174, "idle": 18373, "ominous": 23504, "slits": 29199, "sykes": 23531, "##agger": 27609, "lads": 29126, "84": 6391, "horsemen": 25431, "pinnacle": 26007, "##vas": 12044, "responsibilities": 10198, "\u898b": 1948, "platoon": 13799, "volatile": 20606, "donnelly": 28317, "##etano": 28752, "juice": 10869, "plane": 4946, "snuck": 24492, "becomes": 4150, "##dles": 27822, "receive": 4374, "evolutionary": 12761, "##tan": 5794, "broncos": 14169, "cliffs": 13333, "uncomfortably": 22502, "leverage": 21155, "vegetation": 10072, "noelle": 22336, "deep": 2784, "vines": 16702, "dog": 3899, "turin": 13667, "further": 2582, "scotch": 18937, "president": 2343, "##nier": 14862, "aires": 9149, "reduce": 5547, "turn": 2735, "##ures": 14900, "chile": 7029, "##ows": 15568, "brows": 11347, "##ssar": 25556, "notices": 14444, "power": 2373, "eagle": 6755, "ernesto": 22428, "twilight": 13132, "dept": 29466, "m1": 23290, "##rva": 19146, "reduces": 13416, "amherst": 19850, "cited": 6563, "dinners": 29236, "##uo": 19098, "##\u2606": 30148, "##\u611b": 30379, "pained": 22295, "dispatched": 14501, "ao": 20118, "maguire": 26196, "##lham": 25968, "cong": 26478, "autobiography": 10828, "##sation": 26652, "wandered": 13289, "[unused432]": 437, "dose": 13004, "available": 2800, "imposing": 16625, "sacred": 6730, "lillian": 19344, "##na": 2532, "##fort": 13028, "al": 2632, "gunfire": 16978, "sevens": 19463, "##6": 2575, "damien": 12587, "male": 3287, "mons": 29408, "carthage": 21959, "gertrude": 18734, "##utable": 23056, "comune": 21130, "halves": 23672, "sampled": 18925, "mk": 12395, "piazza": 22463, "edged": 13011, "molded": 27992, "films": 3152, "aired": 4836, "[unused288]": 293, "somewhere": 4873, "[unused91]": 92, "commentator": 12268, "##stov": 29473, "roach": 20997, "francs": 24313, "harold": 7157, "patna": 29565, "golden": 3585, "ks": 29535, "horrors": 22812, "hostel": 21071, "670": 25535, "##esa": 22447, "barcelona": 7623, "most": 2087, "playoffs": 7555, "motive": 15793, "##tics": 14606, "why": 2339, "##+": 29622, "##lita": 27606, "sheltered": 18304, "##jiang": 21786, "##\u0643": 29835, "lays": 19764, "beige": 28799, "grady": 19011, "foil": 17910, "uk": 2866, "mariners": 18049, "physicians": 11572, "circumstances": 6214, "strengthen": 12919, "##\u672c": 30402, "abrams": 23063, "\u201a": 1522, "electrified": 18042, "waller": 23550, "##uses": 25581, "amour": 21518, "led": 2419, "confessions": 21444, "fund": 4636, "repeat": 9377, "##ica": 5555, "##eger": 26320, "prefer": 9544, "sakura": 23066, "##dav": 29045, "##\u90ce": 30484, "evacuation": 13982, "final": 2345, "biplane": 28686, "duo": 6829, "versa": 18601, "katy": 17870, "cairo": 11096, "vietnamese": 9101, "although": 2348, "emigration": 20387, "##lle": 6216, "advise": 18012, "conveyed": 21527, "escalated": 26814, "macquarie": 23903, "2001": 2541, "dormitory": 21538, "kei": 26679, "plucked": 20780, "irritated": 15560, "1949": 4085, "compromised": 20419, "groundwater": 22761, "bribery": 27748, "matter": 3043, "lennon": 14294, "comprehensive": 7721, "##cho": 9905, "runoff": 19550, "succeeds": 21645, "[unused723]": 728, "prove": 6011, "lu": 11320, "luce": 19913, "mahmoud": 27278, "temperance": 23372, "threw": 4711, "serie": 8668, "##ble": 3468, "[unused87]": 88, "frightened": 10363, "##ous": 3560, "expenditure": 20700, "marines": 9622, "blog": 9927, "blue": 2630, "##r": 2099, "highland": 10983, "##ward": 7652, "135": 11502, "pitching": 14696, "##kit": 23615, "fines": 21892, "[unused303]": 308, "deliberately": 9969, "gottingen": 23607, "##35": 19481, "austrians": 28439, "newsweek": 26948, "##dock": 14647, "##\u0ba4": 29921, "vowels": 15260, "peaceful": 9379, "did": 2106, "donna": 10972, "bedrock": 28272, "accredited": 11459, "clemson": 25906, "thumping": 25996, "##ately": 28239, "reno": 17738, "no": 2053, "stains": 27094, "gentlemen": 11218, "magna": 20201, "newfound": 27608, "understand": 3305, "##tour": 21163, "mirrored": 22243, "au": 8740, "universe": 5304, "apollo": 9348, "ladder": 10535, "subjective": 20714, "impact": 4254, "longing": 15752, "##\u2609": 30149, "\u533a": 1782, "sai": 18952, "which": 2029, "fairs": 21947, "1634": 28502, "seized": 8243, "societies": 8384, "underneath": 7650, "##entation": 19304, "palestinians": 21524, "bjorn": 24998, "##ulia": 20922, "dial": 13764, "approx": 22480, "belgium": 5706, "abraham": 8181, "pausing": 20490, "somber": 28587, "kim": 5035, "##ales": 23266, "fee": 7408, "courageous": 26103, "lurking": 24261, "[unused546]": 551, "[unused264]": 269, "south": 2148, "khalid": 21828, "heartland": 27399, "yours": 6737, "##ia": 2401, "##8th": 28264, "54": 5139, "newtown": 26382, "producers": 6443, "shut": 3844, "illustration": 14614, "buff": 23176, "eastman": 24252, "##izing": 6026, "automatically": 8073, "fishermen": 16532, "[unused418]": 423, "contributed": 5201, "georgina": 27358, "331": 27533, "mascara": 27700, "remains": 3464, "majority": 3484, "prevailing": 19283, "shock": 5213, "fairchild": 24258, "sydney": 3994, "##mad": 25666, "establish": 5323, "1928": 4662, "ireland": 3163, "kanye": 29270, "stein": 14233, "chevalier": 22019, "erosion": 14173, "arrondissement": 20522, "mortgage": 14344, "suspend": 28324, "neo": 9253, "battled": 19787, "##s\u0142aw": 23305, "swell": 18370, "##ren": 7389, "bluff": 14441, "cairns": 21731, "visitation": 28877, "commandant": 15254, "credentials": 22496, "##good": 24146, "pushes": 13956, "fractures": 28929, "nation": 3842, "kuwait": 13085, "digger": 28661, "theorists": 28442, "##\u10d1": 29975, "distinctions": 25995, "1778": 16331, "buffalo": 6901, "dropping": 7510, "breathing": 5505, "##\u03b8": 29725, "hampton": 11615, "##br": 19892, "extracts": 27059, "prussia": 10724, "soo": 17111, "##bery": 22509, "smirked": 18775, "blinked": 7948, "stunts": 28465, "hour": 3178, "##\u0e01": 29945, "nonsense": 14652, "clusters": 12906, "shitty": 28543, "volunteers": 7314, "doctrine": 8998, "usb": 18833, "caracas": 21675, "crack": 8579, "640": 19714, "non": 2512, "charity": 5952, "bills": 8236, "niagara": 15473, "naval": 3987, "##za": 4143, "associated": 3378, "mira": 18062, "have": 2031, "404": 24837, "impatience": 28011, "fa": 6904, "reasons": 4436, "##vina": 17948, "footballers": 27784, "entrepreneur": 10670, "harmful": 17631, "##ery": 7301, "compilation": 6268, "barns": 25684, "chuckles": 26088, "##uance": 26620, "trombone": 13914, "folding": 12745, "fuel": 4762, "patton": 18090, "rent": 9278, "scientist": 7155, "anniversary": 5315, "tavern": 13090, "kidd": 25358, "ponytail": 18865, "vice": 3580, "parentheses": 27393, "sometime": 8811, "commuter": 14334, "##lling": 13112, "1733": 27230, "panel": 5997, "dion": 19542, "century": 2301, "1741": 25280, "\u028b": 1133, "sweat": 7518, "##ence": 10127, "statehood": 28000, "reasonable": 9608, "1845": 9512, "nc": 13316, "autism": 19465, "plumbing": 27902, "deserves": 17210, "reflected": 7686, "thoroughbred": 18359, "votes": 4494, "premises": 10345, "loudly": 9928, "shipped": 12057, "acts": 4490, "richest": 18429, "trainer": 10365, "dahl": 27934, "variations": 8358, "[unused312]": 317, "submarine": 6982, "\u90fd": 1961, "herrera": 23527, "partners": 5826, "##ked": 8126, "lockheed": 17646, "gum": 16031, "nevada": 7756, "aa": 9779, "philosopher": 9667, "grasses": 21620, "belize": 18867, "regulated": 12222, "champions": 3966, "muttering": 22581, "remixes": 15193, "devout": 26092, "annexed": 13291, "hmm": 17012, "turning": 3810, "##im": 5714, "spilled": 13439, "[unused736]": 741, "kids": 4268, "cambodia": 12899, "masked": 16520, "1827": 12309, "fun": 4569, "solidarity": 14657, "pursue": 7323, "##pper": 18620, "cochin": 28982, "graduating": 6800, "dvds": 22477, "int": 20014, "frost": 10097, "sanitary": 25480, "formulation": 20219, "##\u9fb8": 30509, "manifested": 24906, "encompassed": 24058, "slam": 9555, "theorem": 9872, "##out": 5833, "assign": 23911, "sipped": 17735, "##vo": 6767, "##vat": 22879, "\u2078": 1542, "##haya": 26115, "parry": 20803, "\u3089": 1685, "palermo": 18705, "twins": 8178, "desires": 14714, "eligible": 7792, "harshly": 21052, "prentice": 23429, "prodigy": 28334, "vendors": 17088, "uncovered": 14486, "##mora": 22122, "##\u8a9e": 30476, "sampling": 16227, "excuse": 8016, "##\u653f": 30386, "##oni": 10698, "annoying": 15703, "hounds": 27772, "artillery": 4893, "mansion": 7330, "##enstein": 21819, "diagrams": 26309, "[unused941]": 946, "fu": 11865, "generating": 11717, "##cted": 10985, "cristina": 22246, "verified": 20119, "coherent": 18920, "[unused116]": 121, "christy": 21550, "quincy": 16141, "radar": 7217, "wide": 2898, ";": 1025, "giorgio": 17697, "parents": 3008, "\u6cb3": 1899, "\u0b9f": 1384, "##bation": 23757, "bounds": 19202, "environmentally": 25262, "leasing": 26707, "mbe": 20301, "flames": 7311, "habsburg": 17486, "regional": 3164, "1989": 2960, "##valent": 24879, "presenters": 25588, "bbc": 4035, "/": 1013, "##pol": 18155, "##eme": 21382, "earlier": 3041, "fancy": 11281, "mack": 11349, "record": 2501, "shortages": 22623, "wishes": 8996, "\u0574": 1229, "##\u09c0": 29916, "##aceous": 25560, "confederates": 24627, "##\u0459": 29762, "burns": 7641, "##por": 17822, "caldwell": 16589, "4a": 26424, "gems": 20296, "lend": 18496, "mega": 13164, "zhang": 9327, "acceleration": 16264, "2005": 2384, "mimi": 20705, "round": 2461, "ceremony": 5103, "[unused452]": 457, "hygiene": 19548, "starbucks": 29500, "gliding": 20292, "189": 20500, "reintroduced": 28263, "ethel": 19180, "minnesota": 5135, "##tze": 23102, "nazareth": 27192, "tongues": 19677, "\u3044": 1647, "quivering": 26012, "229": 22777, "[unused366]": 371, "naive": 15743, "trondheim": 26331, "comparative": 12596, "sermons": 20855, "ministry": 3757, "takes": 3138, "rna": 12987, "flickered": 15999, "##tosis": 25950, "punk": 7196, "hormone": 18714, "cruiser": 10844, "[unused272]": 277, "clockwise": 22839, "harmonic": 19452, "257": 24368, "seaside": 20276, "##genesis": 23737, "##ring": 4892, "##\u10da": 29983, "[unused498]": 503, "##bana": 19445, "##idium": 28742, "##\u6cb3": 30425, "julie": 7628, "shuddering": 25735, "##nov": 16693, "toulon": 27160, "sails": 17553, "tang": 9745, "latter": 3732, "1765": 20797, "windows": 3645, "acre": 7456, "confluence": 13693, "smoky": 20629, "town": 2237, "[unused924]": 929, "1825": 11384, "44": 4008, "skyscraper": 24581, "trinity": 7124, "##front": 12792, "##bid": 17062, "derives": 12153, "favors": 21191, "##ologists": 16886, "salts": 23480, "personality": 6180, "##\u9762": 30502, "military": 2510, "##ter": 3334, "##ously": 13453, "knife": 5442, "healer": 19783, "difficult": 3697, "vicki": 25424, "biker": 28988, "antwerp": 14003, "shaun": 16845, "[unused338]": 343, "carrie": 13223, "pay": 3477, "\u22c5": 1614, "[unused891]": 896, "flores": 17343, "myspace": 24927, "potentially": 9280, "\u02c8": 1149, "[unused902]": 907, "##sha": 7377, "##ved": 7178, "##sf": 22747, "##\u0153": 29674, "sar": 18906, "##hid": 27511, "art": 2396, "avant": 14815, "fighter": 4959, "discovers": 9418, "##yl": 8516, "narrowing": 21978, "trends": 12878, "##uber": 21436, "253": 23254, "\u535a": 1786, "oceania": 20526, "stared": 3592, "##ats": 11149, "inverse": 19262, "meta": 18804, "smallpox": 25765, "diamonds": 11719, "##tu": 8525, "homecoming": 20772, "vogel": 27063, "\u026b": 1120, "hired": 5086, "guyana": 18786, "710": 27671, "monsieur": 21380, "achieving": 10910, "##tara": 27115, "invertebrates": 25700, "tow": 15805, "efficiency": 8122, "jays": 18930, "murders": 9916, "speedy": 26203, "##weig": 27204, "138": 15028, "armament": 14410, "nobody": 6343, "sacrificed": 20268, "manifestation": 24491, "slated": 18517, "frail": 25737, "bain": 28477, "hormones": 20752, "pneumonia": 18583, "reza": 26323, "1725": 25651, "spat": 14690, "aspirations": 22877, "km": 2463, "##region": 23784, "nhl": 7097, "##tta": 5946, "lyricist": 19489, "textbooks": 18841, "double": 3313, "preparation": 7547, "abroad": 6917, "tuna": 24799, "##pe": 5051, "##erine": 24226, "pad": 11687, "solutions": 7300, "sleepy": 17056, "##eral": 21673, "payroll": 26854, "harald": 20966, "livingstone": 27656, "##\u8857": 30472, "remote": 6556, "eels": 29317, "wires": 14666, "slaves": 7179, "ratification": 27369, "viz": 26619, "\u702c": 1905, "hampson": 21780, "secondary": 3905, "missionaries": 11743, "visual": 5107, "321": 24030, "miriam": 16925, "railways": 7111, "uniformed": 25189, "meals": 12278, "##\u1d64": 30044, "##]": 29636, "organizes": 22013, "beale": 28371, "[unused362]": 367, "##jer": 20009, "alexia": 21683, "duluth": 28218, "\u3093": 1691, "benny": 11945, "##cio": 9793, "nape": 23634, "italy": 3304, "55th": 29075, "libel": 26201, "###": 29614, "flirting": 20661, "appointing": 28050, "##rasia": 27839, "requires": 5942, "thumb": 7639, "behalf": 6852, "fiat": 18550, "newest": 14751, "##\u4f50": 30290, "disgust": 12721, "linnaeus": 21610, "##emon": 26941, "purely": 11850, "##\u5fb7": 30374, "[unused936]": 941, "modification": 14080, "valencia": 13083, "decrees": 28966, "##\u662d": 30394, "worrying": 15366, "kindness": 16056, "huskies": 29471, "central": 2430, "woodward": 19133, "cheshire": 13789, "mandates": 25979, "assumed": 5071, "vlad": 19163, "squads": 20191, "measurement": 10903, "eureka": 21142, "helps": 7126, "contacts": 10402, "turkey": 4977, "blake": 6511, "hits": 4978, "overseeing": 19642, "universities": 5534, "deux": 24756, "cornell": 10921, "##men": 3549, "nodes": 14164, "batteries": 10274, "[unused981]": 986, "abilities": 7590, "swans": 26699, "muttered": 6250, "1655": 28438, "descended": 9287, "\u014b": 1106, "dd": 20315, "seeded": 13916, "##tzer": 29546, "crazed": 28343, "##bread": 27035, "clear": 3154, "residing": 7154, "shove": 14738, "unemployed": 18787, "query": 23032, "cease": 13236, "sciences": 4163, "protege": 28567, "observer": 9718, "35th": 20198, "cocky": 24995, "leaving": 2975, "##\u5343": 30310, "\u10d9": 1446, "##\u0bbf": 29932, "pursuant": 27081, "##ette": 7585, "tasha": 25448, "##tangled": 27898, "escorting": 23831, "masculine": 14818, "elsie": 24603, "georgie": 20280, "nervous": 6091, "father": 2269, "##tify": 27351, "lodge": 7410, "##zhou": 9791, "reads": 9631, "summoned": 11908, "day": 2154, "##sms": 19230, "##\u0e19": 29949, "[SEP]": 102, "prevented": 8729, "##washed": 27283, "##ibility": 13464, "##athi": 25457, "##osing": 18606, "creator": 8543, "\u0e07": 1410, "posters": 14921, "##offs": 27475, "accumulated": 14830, "[unused230]": 235, "reducing": 8161, "450": 10332, "\u897f": 1947, "[unused494]": 499, "##ances": 26755, "76": 6146, "detailing": 17555, "clay": 5726, "ancestor": 13032, "pill": 17357, "choreographed": 23317, "raphael": 12551, "##tlement": 24007, "drink": 4392, "##oth": 14573, "##jit": 18902, "pak": 22190, "tormented": 29026, "clearer": 24509, "##chu": 20760, "\u02bb": 1145, "variants": 10176, "[unused65]": 66, "holder": 9111, "1000": 6694, "270": 13756, "ein": 16417, "dissemination": 28170, "converted": 4991, "manipulate": 17708, "immersed": 26275, "spending": 5938, "fan": 5470, "farther": 8736, "##\u0447": 29752, "[unused62]": 63, "added": 2794, "bellevue": 26756, "bless": 19994, "simultaneously": 7453, "indigenous": 6284, "cameroon": 13841, "consider": 5136, "hydrogen": 9732, "com": 4012, "congregational": 20809, "recognised": 7843, "##name": 18442, "osaka": 13000, "ripple": 24644, "disciples": 17102, "hometown": 9627, "movie": 3185, "iranian": 7726, "wheeling": 29142, "engraving": 23501, "district": 2212, "dessert": 18064, "stocked": 24802, "##iger": 17071, "##orestation": 25794, "##vier": 14356, "dumped": 14019, "legendary": 8987, "realise": 19148, "##\u9ad8": 30507, "ordination": 18129, "uganda": 10031, "regeneration": 20045, "\u00b4": 1084, "edgar": 9586, "boroughs": 21413, "buddy": 8937, "indianapolis": 9506, "postponed": 14475, "gambling": 12219, "##ghan": 22218, "root": 7117, "clinical": 6612, "##zuka": 22968, "revenues": 12594, "prompted": 9469, "liable": 20090, "\u2019": 1521, "shifts": 12363, "hitchcock": 19625, "\u0642": 1292, "horseshoe": 23449, "islamist": 27256, "##\u02bc": 29712, "##mber": 21784, "accompanying": 10860, "215": 17405, "elgin": 23792, "felix": 8383, "hailed": 16586, "lyrical": 16376, "package": 7427, "ruined": 9868, "##rangle": 21476, "marcel": 13389, "squeeze": 11025, "##pac": 19498, "abrupt": 18772, "seeds": 8079, "attained": 12754, "##nor": 12131, "exceeds": 23651, "penn": 9502, "chao": 22455, "cope": 11997, "##bird": 9001, "sober": 17358, "\u3066": 1665, "screw": 11224, "kingsley": 22819, "davidson": 12017, "##sque": 17729, "textbook": 16432, "##eers": 22862, "glacier": 10046, "sadness": 12039, "fission": 27521, "illustrations": 11249, "portals": 27388, "##ish": 4509, "novi": 21574, "designed": 2881, "[unused492]": 497, "chooses": 15867, "meaningful": 15902, "translates": 16315, "entertained": 21474, "pottery": 11378, "node": 13045, "figurative": 29407, "funnel": 25102, "bulletin": 13146, "dalton": 12413, "chew": 21271, "##wich": 12414, "daniela": 28541, "upon": 2588, "##zia": 12871, "##minating": 27932, "##mei": 26432, "##bis": 18477, "##sur": 26210, "newsletter": 17178, "[unused305]": 310, "pascal": 17878, ")": 1007, "metallic": 12392, "remnants": 11270, "subscription": 15002, "1868": 7582, "cuff": 26450, "conrad": 10931, "threats": 8767, "[unused585]": 590, "cafe": 7668, "slept": 7771, "baylor": 23950, "hertfordshire": 18889, "sacrifice": 8688, "northern": 2642, "##holm": 18884, "mister": 12525, "##rks": 19987, "physical": 3558, "133": 14506, "1100": 22096, "345": 23785, "garry": 21507, "[unused969]": 974, "pac": 14397, "constrained": 27570, "signaling": 14828, "alberto": 12007, "murals": 19016, "##adt": 18727, "140": 8574, "import": 12324, "garion": 12523, "##ata": 6790, "frowning": 14587, "fei": 24664, "allowing": 4352, "responses": 10960, "##iae": 19001, "regarded": 5240, "great": 2307, "felicia": 27579, "spa": 12403, "mexican": 4916, "##back": 5963, "##gre": 17603, "\u2012": 1515, "grinning": 11478, "[unused823]": 828, "shropshire": 19322, "sara": 7354, "aluminium": 14794, "aqueduct": 24016, "##lena": 20844, "##och": 11663, "somebody": 8307, "##bek": 24597, "spared": 16891, "treaties": 16013, "antrim": 24142, "earthquakes": 17932, "rubble": 17538, "##\u624c": 30385, "[unused518]": 523, "colony": 5701, "##ower": 25114, "[unused948]": 953, "dimensions": 9646, "\u062c": 1275, "rat": 9350, "holm": 28925, "strange": 4326, "reactors": 22223, "refit": 27070, "cruelty": 18186, "##ility": 15148, "nino": 20801, "\u2264": 1608, "##rai": 14995, "##uso": 26658, "mohamed": 14467, "encounter": 8087, "##nea": 22084, "xv": 15566, "##wat": 24281, "00pm": 27995, "flair": 22012, "balls": 7395, "[unused479]": 484, "persons": 5381, "residues": 22644, "[unused175]": 180, "isaiah": 18850, "retreated": 11672, "entrances": 18084, "880": 26839, "licensing": 13202, "belle": 9852, "##hing": 12053, "remarked": 10783, "scanning": 13722, "wellness": 25860, "semitic": 20604, "##coe": 16288, "1805": 13126, "##ss": 4757, "discovering": 13648, "ratios": 21879, "reformer": 24767, "trumpet": 9368, "swiped": 24452, "##ke": 3489, "opposed": 4941, "##van": 6212, "straighten": 28568, "[unused197]": 202, "interface": 8278, "ms": 5796, "bloomington": 26372, "deepest": 17578, "horrific": 23512, "migrating": 28636, "bureaucracy": 25934, "curry": 15478, "missouri": 5284, "termed": 12061, "##oor": 16506, "appreciate": 9120, "hacked": 28719, "gang": 6080, "15th": 6286, "harrison": 6676, "render": 17552, "##\u9f8d": 30508, "ski": 8301, "values": 5300, "expedition": 5590, "##l": 2140, "##\u25cf": 30146, "##arth": 22425, "skeleton": 13526, "country": 2406, "spear": 12341, "##caster": 25490, "bounded": 10351, "boyle": 16694, "world": 2088, "283": 25504, "aloud": 12575, "sergey": 22703, "steaming": 19986, "konstantin": 23989, "residency": 14079, "found": 2179, "planning": 4041, "heiress": 20020, "jacksonville": 13057, "crust": 19116, "williams": 3766, "told": 2409, "sb": 24829, "hardship": 26479, "expands": 24545, "symphonies": 29355, "vodka": 21092, "\u0584": 1239, "administrations": 27722, "hailey": 21664, "\u1106": 1459, "unconscious": 9787, "##\u04cf": 29765, "##\u0628": 29816, "banana": 15212, "loosened": 22456, "park": 2380, "smiled": 3281, "consulting": 10552, "steered": 23424, "##\u3093": 30217, "nationalist": 8986, "fortune": 7280, "legs": 3456, "verlag": 14552, "downward": 14047, "fists": 10006, "raju": 25098, "moore": 5405, "beverly": 12218, "challenger": 12932, "5": 1019, "backpack": 13383, "banning": 21029, "##\u1166": 30009, "murdering": 21054, "attending": 7052, "fable": 28458, "sermon": 18408, "belarusian": 15626, "[unused343]": 348, "##phy": 21281, "dinosaurs": 18148, "infrared": 14611, "achilles": 23167, "preoccupied": 23962, "##manship": 21530, "grief": 9940, "stimulate": 23216, "surreal": 16524, "traction": 16493, "floating": 8274, "grocery": 13025, "##hua": 14691, "yields": 16189, "lacked": 10858, "##scoe": 28147, "##lent": 16136, "##eth": 11031, "[unused597]": 602, "##sume": 23545, "\u30cf": 1718, "fringe": 13548, "##oese": 23379, "##iny": 24300, "binoculars": 29549, "bouquet": 26700, "scream": 6978, "inclination": 21970, "##ques": 10997, "505": 28952, "katrina": 16864, "hollis": 27477, "##\u2097": 30095, "##\u10e1": 29988, "nomination": 6488, "medication": 14667, "remainder": 6893, "##js": 22578, "griffiths": 21960, "madly": 29179, "tracy": 10555, "##ols": 27896, "garde": 14535, "gown": 11739, "benefactor": 27398, "##gra": 17643, "illusion": 12492, "\u4f8d": 1765, "##ensburg": 28812, "recipes": 19328, "hung": 5112, "bones": 5944, "newly": 4397, "investigating": 11538, "agreement": 3820, "##\u4e2d": 30272, "cause": 3426, "##vili": 21661, "devices": 5733, "waterloo": 13784, "##\u3001": 30161, "length": 3091, "possibility": 6061, "##lier": 14355, "inclined": 13050, "scowl": 19981, "connolly": 21018, "sugar": 5699, "yi": 12316, "##og": 8649, "injury": 4544, "anglia": 24217, "clinics": 17865, "1754": 22593, "phyllis": 20328, "derry": 17455, "nearing": 23454, "##\u09a8": 29902, "stricken": 16654, "tales": 7122, "slalom": 19617, "##iente": 25099, "portugal": 5978, "lists": 7201, "\u1019": 1437, "strict": 9384, "weighted": 18215, "pancakes": 28470, "witnessing": 24740, "44th": 26409, "purposely": 24680, "emerald": 14110, "discussion": 6594, "plea": 14865, "sandals": 24617, "akbar": 20730, "##ize": 4697, "inflation": 14200, "physiology": 16127, "broken": 3714, "eleven": 5408, "castles": 15618, "##ls": 4877, "allison": 10786, "blockbuster": 27858, "[unused869]": 874, "##biotic": 26591, "karl": 6382, "##oud": 19224, "##ulating": 10924, "##\u0932": 29870, "taped": 19374, "beethoven": 15461, "downwards": 28457, "customs": 8205, "spears": 13957, "understanding": 4824, "prominent": 4069, "##\u6ca2": 30424, "##dal": 9305, "stallion": 19122, "sighting": 29426, "##mara": 28225, "carefully": 5362, "\u3086": 1683, "blackened": 25788, "grabs": 13273, "enamel": 29484, "jaguar": 16490, "laser": 9138, "slater": 17916, "stage": 2754, "villain": 12700, "cyclone": 11609, "wrongly": 29116, "\u0982": 1346, "##'": 29618, "lightning": 7407, "locus": 25206, "feast": 9831, "jain": 17136, "mondays": 28401, "sprinted": 25156, "easiest": 25551, "1961": 3777, "renegade": 28463, "sheppard": 24976, "geologist": 21334, "escaping": 13002, "\uff5e": 1995, "##olved": 16116, "##eia": 27958, "##psy": 18075, "brace": 17180, "[unused474]": 479, "consisted": 5031, "##nah": 15272, "##ulla": 22187, "asteroid": 12175, "permanently": 8642, "##deh": 25383, "comical": 29257, "practices": 6078, "team": 2136, "\u03c4": 1174, "##tary": 18219, "[unused228]": 233, "mingled": 25959, "##week": 28075, "viktor": 13489, "##dar": 7662, "##ece": 26005, "ashes": 11289, "courtyard": 10119, "\u56db": 1798, "##ors": 5668, "economics": 5543, "mor": 22822, "pristine": 27375, "extensive": 4866, "jj": 29017, "ambitions": 19509, "wrestle": 25579, "mindanao": 23669, "formally": 6246, "memorials": 22899, "laurence": 10883, "rebirth": 22785, "tighten": 21245, "contrasting": 22133, "ballad": 11571, "pays": 12778, "curves": 10543, "\u30ca": 1715, "celebrations": 12035, "mornings": 16956, "##sam": 21559, "captives": 21496, "erich": 17513, "footed": 28856, "october": 2255, "violence": 4808, "landscape": 5957, "kumar": 9600, "petitioned": 22527, "zoology": 22405, "likened": 28834, "clench": 26753, "astronauts": 25881, "finalized": 23575, "skins": 21049, "supervision": 10429, "wharton": 24249, "motivated": 12774, "##\u2217": 30125, "invented": 8826, "rite": 14034, "\u1103": 1457, "mcintyre": 24564, "[unused131]": 136, "consult": 23363, "sunglasses": 17072, "routed": 19578, "rocked": 14215, "hindu": 7560, "dealing": 7149, "##otted": 26174, "kentucky": 5612, "artifact": 20785, "##stan": 12693, "##vinsky": 27704, "##\u10db": 29984, "underground": 5230, "manchu": 26650, "##aneous": 17191, "privilege": 14293, "revealed": 3936, "odor": 19255, "pots": 18911, "alone": 2894, "southland": 29121, "initiatives": 11107, "buildings": 3121, "bessie": 29298, "##raus": 25965, "cfl": 18830, "mutations": 14494, "triad": 25355, "july": 2251, "\u10d3": 1441, "2015": 2325, "baptised": 28798, "##oot": 17206, "##rrell": 14069, "fences": 21549, "survivors": 8643, "332": 29327, "caleb": 10185, "influenza": 24442, "lawsuits": 20543, "conducted": 4146, "about": 2055, "##\u0281": 29694, "[unused296]": 301, "primate": 25662, "1816": 12357, "human": 2529, "kannada": 13873, "animator": 25132, "classroom": 9823, "held": 2218, "infinity": 15579, "reich": 14365, "rockwell": 25235, "motives": 17108, "##cey": 25810, "currently": 2747, "##polis": 17699, "confusing": 16801, "partly": 6576, "streamlined": 29445, "q": 1053, "gt": 14181, "1796": 13885, "unprecedented": 15741, "tomb": 8136, "winnie": 27125, "##rval": 26585, "\u0924": 1323, "qb": 26171, "manor": 6952, "reissue": 17173, "condoms": 29094, "unsuitable": 25622, "impetus": 27961, "bob": 3960, "28th": 15538, "feet": 2519, "gallons": 18501, "speaker": 5882, "[unused897]": 902, "theoretically": 22634, "##mba": 11201, "cosmos": 21182, "seahawks": 21390, "linear": 7399, "system": 2291, "policy": 3343, "easier": 6082, "facts": 8866, "lila": 19286, "huffington": 26149, "oversee": 17467, "wednesday": 9317, "bankruptcy": 10528, "pike": 12694, "##ija": 14713, "elevator": 7764, "nancy": 7912, "chicken": 7975, "##ants": 11390, "sinking": 10186, "decision": 3247, "unlimited": 14668, "translators": 28396, "##omp": 25377, "##zon": 11597, "\u300a": 1639, "##ko": 3683, "justin": 6796, "##ctus": 22675, "killer": 6359, "pretoria": 25366, "serviced": 22858, "tradition": 4535, "representation": 6630, "administering": 28965, "puerto": 5984, "himself": 2370, "fey": 23864, "##osa": 8820, "sudan": 10411, "bit": 2978, "eroded": 23300, "renowned": 8228, "voted": 5444, "indirect": 14958, "pamphlets": 24752, "astronomers": 26357, "mutual": 8203, "receipt": 24306, "sweating": 18972, "##crats": 23423, "##adia": 25205, "facilitates": 27777, "250": 5539, "treasures": 17605, "noting": 9073, "r": 1054, "putting": 5128, "specified": 9675, "endelle": 29581, "expanding": 9186, "undoubtedly": 17319, "belgrade": 10291, "##gul": 24848, "##cratic": 17510, "bukit": 29007, "##rak": 16555, "bracelet": 19688, "giro": 19226, "signals": 7755, "##elin": 18809, "friedrich": 8896, "##\u99ac": 30506, "classrooms": 12463, "teased": 13074, "fabric": 8313, "motions": 15323, "lattice": 17779, "terminated": 12527, "state": 2110, "\u30a8": 1698, "hr": 17850, "##trip": 24901, "spring": 3500, "169": 18582, "escape": 4019, "oven": 17428, "lifelong": 13506, "##\u2020": 30061, "bonded": 20886, "##tius": 22638, "executing": 23448, "##wi": 9148, "acacia": 24766, "mauritius": 18004, "##rgen": 25892, "boost": 12992, "##\u203a": 30068, "##\u6d77": 30428, "105": 8746, "venom": 15779, "lamar": 19756, "breadth": 25291, "sally": 8836, "selected": 3479, "ambassadors": 20986, "pam": 14089, "##stra\u00dfe": 24967, "wiggled": 26750, "estimation": 24155, "\u0430": 1180, "genuinely": 15958, "1985": 3106, "##sir": 29481, "demonstrating": 14313, "effect": 3466, "reformed": 9114, "tonic": 28157, "flutter": 23638, "##uta": 13210, "##iana": 11410, "seville": 18983, "134": 15170, "cared": 8725, "cell": 3526, "niall": 21889, "formation": 4195, "communism": 15523, "kicked": 6476, "[unused180]": 185, "flat": 4257, "kazakhstan": 11769, "drives": 9297, "munoz": 23685, "initiate": 17820, "\u30e0": 1725, "avenge": 24896, "##zic": 27586, "131": 14677, "technical": 4087, "##plication": 21557, "splitting": 14541, "[unused468]": 473, "asiatic": 23983, "lent": 15307, "melancholy": 22247, "\u2096": 1565, "##aday": 28039, "380": 17014, "axes": 19589, "breast": 7388, "calm": 5475, "bags": 8641, "lizzie": 15860, "unfit": 29439, "systems": 3001, "inevitably": 21268, "spent": 2985, "environmental": 4483, "octagonal": 22340, "unicode": 27260, "injustice": 21321, "crawley": 28854, "[unused332]": 337, "##enham": 23580, "repair": 7192, "playwright": 11170, "september": 2244, "carmichael": 23537, "offensive": 5805, "##\u307b": 30202, "borders": 6645, "lamp": 10437, "multiplication": 24856, "vic": 10967, "designated": 4351, "serve": 3710, "##onzo": 29452, "islanders": 16422, "barriers": 13500, "fathers": 11397, "malaysian": 11843, "restriction": 16840, "cedar": 11354, "001": 25604, "##tok": 18715, "seemingly": 9428, "##achal": 24409, "absorption": 16326, "##shan": 9688, "fix": 8081, "transverse": 18323, "incidents": 10444, "abundance": 14531, "spectra": 29237, "remembering": 10397, "##izes": 10057, "gilbert": 7664, "refuse": 10214, "[unused495]": 500, "tq": 28816, "driving": 4439, "lds": 17627, "vista": 13005, "approved": 4844, "\u0576": 1231, "##jk": 15992, "[unused596]": 601, "##roll": 28402, "[unused620]": 625, "dawn": 6440, "jamestown": 27435, "bloomberg": 22950, "tabloid": 24173, "tensed": 15225, "await": 26751, "substance": 9415, "##py": 7685, "veracruz": 23741, "[unused832]": 837, "lumber": 13891, "supervising": 21238, "\u2098": 1567, "band": 2316, "coating": 18898, "##ayan": 25868, "psalm": 22728, "ottoman": 6188, "consumer": 7325, "graham": 5846, "fivb": 28423, "\u09c0": 1380, "##\u00b4s": 21932, "moines": 23286, "##pher": 27921, "sparkled": 28092, "##uts": 16446, "##bbe": 19473, "fishes": 21995, "[unused219]": 224, "precautions": 29361, "sped": 16887, "\u2218": 1599, "colors": 6087, "killers": 15978, "##ingham": 16445, "oakland": 9182, "shriek": 24795, "##igen": 29206, "starving": 18025, "circular": 8206, "zeke": 18270, "179": 20311, "honourable": 17164, "zachary": 19474, "##cer": 17119, "cas": 25222, "##\u694a": 30409, "respond": 6869, "\u90ce": 1958, "rays": 9938, "aggressively": 24663, "##\u30b5": 30231, "helens": 24074, "exasperated": 24379, "filters": 17736, "limerick": 15679, "##clave": 23650, "zhejiang": 26805, "administrator": 8911, "developments": 8973, "autonomous": 8392, "constant": 5377, "cassidy": 13737, "development": 2458, "remembrance": 19451, "minerals": 13246, "[unused847]": 852, "tease": 18381, "perpendicular": 19581, "odessa": 19693, "dozen": 6474, "oder": 27215, "pioneers": 13200, "242": 22431, "berlin": 4068, "sequel": 8297, "maldives": 25059, "##2": 2475, "##ural": 11137, "resolved": 10395, "upcoming": 9046, "knesset": 27899, "exchanged": 10573, "compositions": 9265, "legend": 5722, "principality": 18018, "southward": 22161, "oliver": 6291, "exercise": 6912, "undergoing": 14996, "won": 2180, "1794": 13199, "[unused39]": 40, "boasted": 23390, "eligibility": 11395, "gritted": 17307, "prosperous": 18241, "angelica": 19458, "heal": 11005, "finalist": 9914, "help": 2393, "virgil": 17270, "conde": 24707, "banged": 22843, "denote": 19090, "##\u0433": 29741, "##hoot": 23416, "##nde": 13629, "cowboy": 11762, "substitution": 20885, "tension": 6980, "haze": 16332, "##tive": 6024, "##\u3008": 30163, "##\u0e2a": 29956, "someone": 2619, "\u0940": 1342, "sts": 8541, "##wash": 28556, "sergeant": 6722, "sometimes": 2823, "similar": 2714, "boon": 23264, "unleashed": 22416, "##val": 10175, "labels": 10873, "material": 3430, "newborn": 20662, "##ulator": 20350, "fortifications": 14507, "displacement": 13508, "cooperation": 6792, "##lab": 20470, "##\u0928": 29863, "saga": 12312, "patrick": 4754, "famed": 15607, "ban": 7221, "##ted": 3064, "lax": 27327, "##sat": 16846, "captain": 2952, "carnegie": 11298, "alexei": 21219, "welcome": 6160, "extent": 6698, "##ronia": 28140, "##hian": 14204, "##mat": 18900, "chips": 11772, "fearing": 14892, "bet": 6655, "webb": 10923, "##\u79cb": 30455, "translate": 17637, "bolivian": 26075, "##ika": 7556, "books": 2808, "banished": 21319, "reliability": 15258, "truth": 3606, "##\u7684": 30442, "nailed": 26304, "\u05e6": 1263, "1625": 26263, "marry": 5914, "##cend": 23865, "ornaments": 24005, "blasted": 18461, "85": 5594, "betray": 20895, "##sche": 22842, "86": 6564, "propellers": 23405, "oyster": 21480, "marsden": 29558, "rugged": 17638, "regarding": 4953, "claiming": 6815, "##mined": 25089, "mccall": 25790, "alcohol": 6544, "paralysis": 26287, "knows": 4282, "kobayashi": 28930, "congregation": 7769, "##57": 28311, "generic": 12391, "\u11b7": 1487, "currents": 14731, "altitude": 7998, "\u03b4": 1158, "\u6c34": 1893, "##made": 21565, "craved": 25155, "frontal": 19124, "\u0bb0": 1391, "48th": 27787, "##edly": 26207, "genetic": 7403, "wheeler": 12819, "reel": 15934, "ab": 11113, "g": 1043, "lest": 26693, "139": 16621, "##\u0435": 15290, "##hood": 9021, "##\u0642": 29834, "alarm": 8598, "earthly": 29520, "folds": 15439, "characteristic": 8281, "rustic": 27471, "segregated": 24382, "##qvist": 28705, "##tes": 4570, "pounded": 13750, "scares": 29421, "##rte": 19731, "34": 4090, "poverty": 5635, "##ution": 13700, "bears": 6468, "debra": 28762, "##shore": 19208, "##unas": 23904, "fender": 19028, "joints": 17651, "nichols": 15746, "verbal": 12064, "afghan": 12632, "212": 18164, "michael": 2745, "philosophical": 9569, "##\u30c3": 30237, "##cating": 18252, "mantle": 16019, "outlined": 14801, "privy": 14452, "register": 4236, "##pment": 24073, "forms": 3596, "michel": 8709, "##roi": 26692, "winger": 16072, "after": 2044, "throw": 5466, "##ks": 5705, "aerodynamic": 28033, "spines": 20352, "stepped": 3706, "beams": 13110, "illustrious": 26150, "[unused905]": 910, "lucha": 25390, "[unused755]": 760, "para": 11498, "pulls": 8005, "##ulate": 9869, "mughal": 17877, "mysterious": 8075, "clones": 24418, "charles": 2798, "oxidation": 19577, "ideally": 28946, "antiquities": 21387, "discrimination": 9147, "mantra": 25951, "she": 2016, "##\u30a7": 30223, "[unused106]": 111, "saline": 28413, "1767": 21502, "abandon": 10824, "##wn": 7962, "##\u1112": 30005, "gnu": 27004, "huntsville": 28492, "lime": 14123, "sideways": 12579, "verify": 20410, "##\u2093": 30092, "stride": 18045, "mammals": 11993, "bridge": 2958, "manly": 19385, "##zione": 20574, "archipelago": 13888, "##ian": 2937, "##writing": 18560, "oneself": 25763, "robe": 11111, "arias": 25905, "instinct": 12753, "rendition": 19187, "stones": 6386, "adept": 26398, "vii": 8890, "tu": 10722, "doll": 10658, "stretches": 14082, "blah": 27984, "maynard": 22130, "##xia": 14787, "reservation": 11079, "supplier": 17024, "kabul": 21073, "##ils": 12146, "##\u09bf": 29915, "berkeley": 8256, "charting": 17918, "##att": 19321, "seizing": 24681, "##lee": 10559, "compose": 17202, "##to": 3406, "308": 24232, "##ain": 8113, "##sas": 20939, "amos": 13744, "##pone": 29513, "##ela": 10581, "##nge": 15465, "curse": 8364, "incorporating": 13543, "gore": 13638, "species": 2427, "remarried": 19316, "elements": 3787, "borne": 15356, "##bara": 20709, "newport": 9464, "certification": 10618, "patio": 19404, "capabilities": 9859, "qing": 13282, "accessibility": 23661, "tnt": 24048, "##ock": 7432, "##ids": 9821, "duel": 14216, "##ys": 7274, "bewildered": 24683, "leonardo": 14720, "##xin": 20303, "stephanie": 11496, "nominations": 9930, "abbas": 17532, "upbringing": 24615, "mt": 11047, "maternity": 23676, "##rco": 29566, "brian": 4422, "workers": 3667, "writhing": 26185, "##tled": 14782, "##nified": 25201, "isis": 18301, "wears": 11651, "##iac": 20469, "capability": 10673, "comte": 19758, "annals": 16945, "demons": 7942, "insulting": 23979, "intending": 16533, "##points": 26521, "##bon": 11735, "##rand": 13033, "benin": 21164, "vacuum": 11641, "recalling": 21195, "islamic": 5499, "ked": 16135, "morale": 19292, "henrik": 18745, "guardians": 14240, "\u027e": 1126, "##\u0905": 29847, "[unused650]": 655, "##\u05e6": 29809, "accountant": 17907, "lives": 3268, "##mite": 23419, "civilization": 10585, "carriers": 11363, "ecumenical": 23540, "##mler": 18602, "obe": 15578, "honesty": 16718, "##hyllum": 27750, "saxophone": 8283, "##ivism": 22486, "##raphic": 20721, "durga": 28746, "behind": 2369, "confirms": 23283, "##moto": 15319, "##was": 17311, "warrant": 10943, "##\u0644": 23673, "rallied": 24356, "eurasian": 23399, "##\u6bd4": 30416, "##aging": 16594, "sprint": 9043, "##\u5317": 30307, "##wick": 7184, "hiroshima": 20168, "astonishment": 23819, "venezuelan": 15332, "baden": 12189, "distributor": 16632, "##omi": 20936, "1913": 5124, "mascot": 13314, "\u30fc": 1739, "squid": 26852, "consultants": 22283, "literature": 3906, "photographers": 17008, "1854": 8421, "appropriately": 23263, "##working": 21398, "hesitation": 13431, "reservoirs": 22535, "safety": 3808, "idiot": 10041, "loretta": 28493, "laying": 10201, "identifiable": 27800, "function": 3853, "80": 3770, "recognizes": 14600, "evaluating": 23208, "flow": 4834, "##\u2086": 30082, "##av": 11431, "102": 9402, "cocktail": 18901, "earrings": 27212, "visiting": 5873, "testosterone": 25937, "##force": 14821, "##roup": 22107, "composed": 3605, "vamps": 24064, "##poulos": 24662, "groan": 13001, "unlawful": 22300, "electoral": 6092, "gardening": 21529, "representatives": 4505, "##lay": 8485, "##ungen": 23239, "cat": 4937, "1661": 24046, "[unused794]": 799, "rattled": 19252, "\u05d7": 1248, "impoverished": 25488, "##gio": 11411, "winds": 7266, "bourgeois": 22846, "chamberlain": 13904, "consecutive": 5486, "surge": 12058, "[unused885]": 890, "concepts": 8474, "luisa": 25412, "shrine": 9571, "unreasonable": 29205, "worship": 7425, "##net": 7159, "##\u4f0a": 30288, "southeastern": 8252, "swam": 16849, "glare": 10982, "automatic": 6882, "queen": 3035, "##rden": 18246, "lgbt": 12010, "faso": 22773, "hindi": 9269, "waits": 18074, "migration": 9230, "boiled": 17020, "##\u0628\u0627\u062f": 25799, "##sed": 6924, "##ze": 4371, "bladed": 27402, "dutton": 28784, "entrusted": 18011, "defiance": 19674, "antibody": 27781, "sardinia": 21594, "luc": 12776, "divided": 4055, "650": 13757, "diesel": 7937, "magistrate": 14351, "##uising": 28580, "amazingly": 29350, "cochrane": 22329, "responds": 16412, "others": 2500, "##\u0f53": 29965, "somewhat": 5399, "villas": 27317, "##kling": 20260, "utterly": 12580, "##tman": 22942, "neon": 16231, "torah": 16297, "dartmouth": 16960, "reserve": 3914, "seismic": 22630, "mature": 9677, "##\u2070": 30071, "\u4e45": 1748, "##rner": 18703, "\u0f0b": 1424, "breach": 12510, "##\u10d2": 29976, "##tech": 15007, "##onne": 18256, "navigable": 28538, "##ulus": 11627, "undisclosed": 18206, "sigismund": 26748, "cantor": 26519, "europe": 2885, "pig": 10369, "##\u3057": 30183, "betty": 9306, "skills": 4813, "til": 18681, "##bian": 15599, "councillor": 10674, "backyard": 16125, "\u7701": 1920, "constituent": 13794, "statues": 11342, "##works": 9316, "[unused808]": 813, "request": 5227, "burgess": 17754, "##ivision": 24607, "equals": 19635, "patients": 5022, "##unda": 18426, "maxim": 20446, "moderately": 17844, "marshall": 5832, "pluto": 26930, "vc": 18315, "wisdom": 9866, "pleasure": 5165, "##hh": 23644, "depicted": 8212, "##roids": 29514, "sicilian": 22584, "springfield": 10493, "\u03b7": 1161, "hedges": 25840, "products": 3688, "authoritarian": 27246, "##\u3068": 30192, "burying": 20491, "ferguson": 11262, "##lium": 21816, "archaeologists": 19254, "conducting": 9283, "authorization": 20104, "hours": 2847, "mrs": 3680, "retreat": 7822, "1708": 27337, "systematic": 11778, "thee": 14992, "[unused802]": 807, "gracefully": 28266, "bend": 8815, "hiv": 9820, "jammu": 21433, "cab": 9298, "hiroshi": 26882, "jerusalem": 6744, "\u6c5f": 1897, "tagged": 26610, "rally": 8320, "treacherous": 26648, "[unused28]": 29, "implemented": 7528, "##enberg": 11029, "wesleyan": 19858, "##len": 7770, "breaks": 7807, "rican": 13641, "inward": 20546, "doubted": 12979, "##pack": 23947, "roofed": 26080, "sliding": 8058, "##65": 26187, "chan": 9212, "reactions": 9597, "eritrea": 26040, "individual": 3265, "shimmering": 22349, "hospitalized": 24735, "fertile": 14946, "##cats": 19588, "##us": 2271, "commendation": 23039, "headed": 3753, "charging": 13003, "directed": 2856, "\u03b6": 1160, "qin": 19781, "monday": 6928, "bertie": 20743, "##ops": 11923, "##ide": 5178, "arabia": 9264, "groom": 18087, "pennant": 22690, "examiner": 19684, "protein": 5250, "##yst": 27268, "swayed": 20122, "sherry": 22268, "zip": 14101, "##aves": 21055, "##ir": 4313, "##ense": 16700, "##\u0637": 29828, "##ult": 11314, "domingo": 15586, "blazers": 28513, "97": 5989, "jointly": 10776, "bloom": 13426, "toys": 10899, "caressing": 25296, "lucinda": 28261, "connecting": 7176, "spelled": 11479, "roar": 11950, "##vable": 12423, "protects": 18227, "##\u03c7": 29737, "geography": 10505, "ivory": 11554, "ranked": 4396, "season": 2161, "##ista": 11921, "##section": 29015, "tristan": 9822, "anatomical": 28141, "abbot": 11428, "bugs": 12883, "deployed": 7333, "146": 16333, "relatively": 4659, "disorder": 8761, "allie": 16944, "bmw": 13154, "##(": 29619, "##hane": 28006, "tottenham": 18127, "edo": 18314, "##press": 20110, "conjecture": 22647, "fukuoka": 26998, "guinea": 7102, "##unciation": 24101, "academic": 3834, "westphalia": 22952, "weakening": 22031, "##rae": 16652, "miniatures": 28615, "##ilo": 22360, "##ffed": 15388, "spy": 8645, "stroked": 11699, "alliance": 4707, "##more": 5974, "kind": 2785, "militias": 29271, "sawmill": 24744, "dwell": 23120, "machinery": 10394, "treats": 18452, "\u211d": 1579, "##hita": 23935, "##vius": 26055, "accidental": 17128, "##chel": 15721, "##\u2098": 30096, "cushions": 27205, "##sho": 22231, "awhile": 19511, "hannah": 8410, "\u0561": 1219, "vuelta": 21441, "sire": 15785, "personally": 7714, "##eland": 25689, "guessed": 11445, "therapeutic": 17261, "concerto": 10405, "provocative": 26422, "##post": 19894, "##mot": 18938, "eco": 17338, "crush": 10188, "message": 4471, "kb": 21677, "rasped": 28459, "burned": 5296, "##ai": 4886, "alongside": 4077, "korea": 4420, "\u1d3a": 1494, "[unused124]": 129, "marco": 8879, "depot": 8470, "sicily": 12071, "##wire": 20357, "attractions": 13051, "scissors": 25806, "atoms": 13353, "##laid": 24393, "##\u110e": 30001, "convicts": 24948, "cinemas": 19039, "payload": 18093, "\u2194": 1587, "\u304f": 1653, "helm": 16254, "##tin": 7629, "##lowe": 27663, "philippine": 7802, "##\u30a8": 30224, "##rians": 23543, "dunlop": 27458, "alfonso": 13591, "##yle": 12844, "michele": 15954, "cracks": 15288, "swirl": 28693, "\u05db": 1252, "chaotic": 19633, "flu": 19857, "sensible": 21082, "enjoyed": 5632, "cocaine": 16034, "##urable": 23086, "##quay": 25575, "advertising": 6475, "##lated": 13776, "disqualified": 14209, "essential": 6827, "hurrying": 27951, "nigerian": 11884, "schumacher": 22253, "tesla": 26060, "instructional": 23219, "um": 8529, "##cino": 21081, "br": 7987, "##eum": 14820, "slack": 19840, "fighters": 7299, "##apple": 23804, "cheerful": 18350, "purchasing": 13131, "preserves": 18536, "cayman": 26164, "dundee": 14252, "ley": 25866, "##elle": 14774, "halifax": 10475, "pr": 10975, "##nan": 7229, "squeak": 29552, "detectors": 25971, "spirit": 4382, "containing": 4820, "menon": 25111, "liquor": 13207, "seeking": 6224, "remorse": 23124, "peeled": 20956, "rowan": 14596, "sirens": 20675, "##onate": 21149, "guarantee": 11302, "humble": 15716, "jam": 9389, "yemen": 13968, "aggregate": 9572, "##omo": 19506, "heaviest": 26858, "##\u10e3": 29990, "hellenistic": 27464, "dustin": 24337, "engraver": 27771, "##51": 22203, "mei": 19734, "rae": 14786, "polymer": 17782, "specialising": 23315, "beliefs": 9029, "winslow": 26600, "proceeds": 10951, "\u0dcf": 1408, "\u116d": 1477, "##eses": 23072, "malmo": 23643, "ernst": 10728, "[unused852]": 857, "##wo": 12155, "##\u30df": 30250, "documentary": 4516, "sidney": 11430, "carlson": 22226, "##ol": 4747, "sonora": 26647, "stats": 26319, "mainstream": 7731, "renumbered": 27855, "airfields": 25278, "olympia": 17096, "##tino": 25690, "propulsion": 16404, "benson": 11999, "arabic": 5640, "ultra": 11087, "##carbon": 26190, "##ively": 14547, "experiencing": 13417, "territories": 6500, "inaugurated": 11070, "##\u09ae": 29906, "prussian": 10734, "##pose": 20688, "##ged": 5999, "##lva": 22144, "##wei": 19845, "deploy": 21296, "worsened": 27622, "##enas": 26474, "piccolo": 29368, "##\u5b80": 30344, "trafford": 26894, "activated": 8878, "237": 23297, "##wny": 22251, "inconsistent": 20316, "callahan": 25668, "\u7af9": 1933, "eyebrows": 8407, "outputs": 27852, "proof": 6947, "institute": 2820, "passing": 4458, "bear": 4562, "##ceae": 9071, "chevrolet": 14724, "couple": 3232, "arid": 17511, "##backs": 12221, "future": 2925, "225": 14993, "immediately": 3202, "runner": 5479, "superhuman": 27061, "##tron": 15312, "bard": 22759, "embarked": 11299, "\u5343": 1784, "\u6728": 1875, "buzzing": 20386, "callum": 15229, "earl": 4656, "##iers": 10136, "shareholder": 18668, "marche": 28791, "alloy": 17564, "##rted": 17724, "aka": 9875, "faerie": 27498, "namely": 8419, "modified": 6310, "laundering": 28289, "##ska": 8337, "cites": 17248, "hundred": 3634, "arrives": 8480, "advancing": 10787, "##bial": 21102, "##\u30aa": 30225, "glamour": 22439, "hooks": 18008, "cigarettes": 15001, "##uven": 27346, "fronts": 21430, "playing": 2652, "impose": 17607, "meng": 27955, "christina": 12657, "##sier": 20236, "collectors": 14256, "puzzled": 14909, "##\u057a": 29780, "##\u674e": 30403, "sunset": 10434, "jurisprudence": 24697, "##pf": 14376, "sacrifices": 18502, "best": 2190, "lowry": 27281, "prevalence": 20272, "##dberg": 25190, "##tangle": 23395, "database": 7809, "shanghai": 8344, "##ige": 25538, "mommy": 20565, "##ail": 12502, "##\u099a": 29892, "galactic": 21375, "sided": 11536, "murmured": 7152, "intact": 10109, "ask": 3198, "##ose": 9232, "feasible": 22945, "mounts": 19363, "75": 4293, "usa": 3915, "cite": 21893, "nt": 23961, "simmons": 13672, "asking": 4851, "1916": 4947, "sofa": 10682, "##ix": 7646, "demonstrated": 7645, "right": 2157, "##ney": 5420, "930": 29359, "rumours": 19200, "cartwright": 27513, "gee": 20277, "publishers": 8544, "relating": 8800, "collectively": 13643, "meal": 7954, "ashley": 9321, "plaintiffs": 23953, "internship": 22676, "acknowledge": 13399, "\u5dff": 1837, "corner": 3420, "gauge": 7633, "##an": 2319, "instrumental": 6150, "eve": 6574, "passions": 25289, "posing": 20540, "implicit": 24655, "##omics": 25524, "[unused430]": 435, "##\u7530": 30437, "1873": 7612, "lucien": 11732, "regard": 7634, "[unused523]": 528, "waterfront": 16317, "##ker": 5484, "lacey": 16355, "##orne": 23846, "410": 19151, "connell": 17199, "variance": 23284, "\u0252": 1111, "obstruction": 27208, "##inal": 13290, "sweatshirt": 28095, "skater": 18815, "hook": 8103, "hussain": 20093, "located": 2284, "negotiated": 13630, "uncomfortable": 8796, "straw": 13137, "tingling": 23690, "prequel": 28280, "blessed": 10190, "guise": 21980, "derrick": 18928, "admire": 19837, "[unused274]": 279, "reeling": 28515, "lance": 9993, "buchanan": 14349, "##\u0449": 29754, "##taff": 22542, "confined": 12302, "flock": 19311, "hk": 22563, "loco": 28046, "bath": 7198, "tamil": 6008, "##has": 14949, "delilah": 23006, "varies": 9783, "##eck": 11012, "##usly": 27191, "##utnant": 24620, "ngc": 27645, "balloons": 22163, "bell": 4330, "pauses": 19623, "ropes": 14607, "propped": 16863, "spice": 17688, "proponents": 20401, "somethin": 27941, "##ota": 17287, "reflex": 22259, "stainless": 18676, "with": 2007, "[unused510]": 515, "subfamily": 10946, "apologize": 12134, "1640": 21533, "[unused236]": 241, "1937": 4347, "##edging": 28002, "inspected": 20456, "amulet": 25087, "dialogue": 7982, "theta": 23963, "blended": 19803, "snake": 7488, "##\u7cf9": 30460, "[unused25]": 26, "adjutant": 20690, "luftwaffe": 17740, "focusing": 7995, "[unused163]": 168, "punched": 11696, "rebellion": 7417, "tanker": 20135, "\u5fc4": 1850, "##iu": 17922, "linguistics": 15397, "andrew": 4080, "]": 1033, "1926": 4881, "disciplined": 28675, "##\u03bd": 16177, "chord": 13924, "530": 23523, "donated": 6955, "1832": 10212, "growth": 3930, "historical": 3439, "narrative": 7984, "prism": 26113, "##\u062f": 15394, "therefore": 3568, "an": 2019, "ego": 13059, "ubiquitous": 28498, "cycling": 9670, "governor": 3099, "lil": 13451, "sweetness": 23210, "[unused143]": 148, "rosewood": 29528, "##32": 16703, "[unused42]": 43, "##rid": 14615, "357": 26231, "\u0254": 1112, "legends": 9489, "cow": 11190, "##ographic": 13705, "ripped": 9157, "inhabited": 9613, "sum": 7680, "worry": 4737, "hillside": 18573, "homes": 5014, "muhammad": 7187, "rabbit": 10442, "guthrie": 19952, "whatsoever": 18971, "holden": 9988, "prestigious": 8919, "slaughtered": 23044, "[unused811]": 816, "craven": 21232, "##cha": 7507, "sociology": 11507, "versus": 6431, "addition": 2804, "raises": 13275, "##centric": 22461, "##eborg": 27614, "##kato": 26020, "##ner": 3678, "discharge": 11889, "followed": 2628, "panthers": 12915, "wreckage": 21056, "thump": 21324, "appendix": 22524, "[unused666]": 671, "sans": 20344, "##anto": 21634, "armory": 24139, "1848": 7993, "choose": 5454, "amnesia": 29222, "strictly": 9975, "secretariat": 15128, "sustainability": 15169, "\u03c9": 1179, "thompson": 5953, "turbines": 17396, "latitude": 15250, "chapter": 3127, "kai": 11928, "[unused451]": 456, "evade": 26399, "solved": 13332, "england": 2563, "gently": 5251, "kits": 18628, "server": 8241, "1772": 17483, "##lass": 27102, "sloane": 17558, "inclusive": 18678, "throwing": 6886, "dowager": 20508, "##oris": 21239, "1966": 3547, "[unused894]": 899, "hammer": 8691, "financed": 13790, "##lland": 26087, "longtime": 11155, "theo": 14833, "##bill": 24457, "##uj": 23049, "offering": 5378, "##truct": 18300, "[unused5]": 6, "##iom": 18994, "tenure": 7470, "&": 1004, "decreed": 28447, "downloadable": 26720, "##rca": 18992, "letter": 3661, "teller": 21322, "##chal": 18598, "seventeenth": 15425, "humiliation": 21171, "mission": 3260, "liverpool": 6220, "sections": 5433, "eh": 15501, "chatham": 16727, "menu": 12183, "abandoning": 19816, "##alle": 24164, "evergreen": 16899, "updates": 14409, "[unused377]": 382, "##ucher": 22368, "moe": 22078, "dismounted": 29580, "quay": 21048, "ion": 10163, "##cle": 14321, "mistake": 6707, "clint": 16235, "euroleague": 26093, "opined": 26084, "##ent": 4765, "albany": 10283, "elisabeth": 12877, "gaelic": 11196, "sexy": 7916, "naughty": 20355, "##ntal": 15758, "\u66f8": 1871, "progression": 14967, "bog": 22132, "##ev": 6777, "severity": 18976, "##udeau": 27627, "wrath": 14532, "heroism": 27117, "exhaustion": 15575, "onset": 14447, "##\u9547": 30492, "cages": 27157, "\u5948": 1814, "abstraction": 24504, "##imeters": 28136, "militants": 17671, "##vance": 21789, "##mins": 21266, "carlo": 9758, "dorothy": 9984, "receives": 8267, "##star": 14117, "##gne": 10177, "1793": 12387, "minimum": 6263, "grove": 7676, "##pani": 26569, "adherents": 25712, "alice": 5650, "##dorf": 11592, "##ott": 14517, "780": 28601, "##\u0f63": 29971, "sock": 28407, "\u10e3": 1454, "##ar": 2906, "##aq": 20784, "trading": 6202, "universidad": 16501, "pavement": 14271, "##itation": 18557, "emission": 15760, "##just": 29427, "progressed": 12506, "cute": 10140, "##gizing": 28660, "##cens": 19023, "manufacturer": 7751, "wish": 4299, "rumble": 15658, "unconventional": 23693, "\u30a7": 1697, "harvested": 22629, "\u0647": 1297, "\u10d2": 1440, "stemmed": 27674, "pathway": 12732, "##balance": 26657, "[unused416]": 421, "##ming": 6562, "creative": 5541, "consortium": 12360, "philology": 29286, "vertebrae": 25517, "terribly": 16668, "##enne": 24336, "##hil": 19466, "##\u66f8": 30397, "insulted": 23637, "requiring": 9034, "defences": 16828, "420": 17442, "mountain": 3137, "adolescent": 20274, "invite": 13260, "[unused649]": 654, "##iation": 18963, "contracted": 11016, "liberia": 18039, "sarcastic": 22473, "sharpened": 26694, "catholicism": 16138, "tabitha": 21581, "stucco": 27443, "rained": 28270, "##ag": 8490, "thing": 2518, "\uff09": 1988, "supported": 3569, "churches": 5231, "flying": 3909, "research": 2470, "##hit": 16584, "meaning": 3574, "weighed": 12781, "remarkable": 9487, "##ffs": 21807, "fusiliers": 27207, "through": 2083, "carey": 11782, "biblical": 10213, "laughed": 4191, "types": 4127, "fe": 10768, "portland": 6734, "cheerleading": 25721, "drive": 3298, "brand": 4435, "circulated": 17640, "1b": 26314, "eyes": 2159, "\u0bb5": 1394, "94": 6365, "##tic": 4588, "peeking": 28222, "causes": 5320, "dynamic": 8790, "periodic": 15861, "taxonomy": 25274, "butcher": 14998, "hooded": 21592, "sk": 15315, "juliana": 24157, "39th": 22702, "football": 2374, "evenly": 18030, "javier": 13824, "bucket": 13610, "pyrenees": 22696, "timmy": 27217, "introduce": 8970, "228": 22238, "approximation": 20167, "publisher": 6674, "##media": 16969, "celebrities": 12330, "##thi": 15222, "##umber": 29440, "bison": 22285, "sichuan": 20980, "[unused317]": 322, "##fy": 12031, "910": 27743, "administrative": 3831, "calculus": 19276, "commanded": 6311, "flora": 10088, "1855": 8492, "##ches": 8376, "scans": 27404, "winner": 3453, "shillings": 29332, "405": 23988, "transformation": 8651, "##eo": 8780, "showcasing": 27696, "rector": 10935, "##wood": 3702, "merrill": 16239, "earliest": 5700, "\u03b2": 1156, "leapt": 13920, "##\u0d9a": 29939, "anson": 25435, "elect": 11322, "3": 1017, "chicago": 3190, "mater": 16289, "threaten": 15686, "warns": 19428, "damascus": 16094, "home": 2188, "jiang": 20613, "##nia": 6200, "tournaments": 8504, "shores": 13312, "[unused435]": 440, "wink": 16837, "nas": 17235, "##sch": 11624, "topped": 9370, "##ion": 3258, "lebanese": 12592, "suzanne": 15146, "hillsborough": 29330, "oklahoma": 5858, "shortened": 12641, "administer": 21497, "fascinated": 15677, "ismail": 19214, "##iv": 12848, "ctv": 28720, "sigma": 13201, "gael": 28151, "72": 5824, "dax": 27116, "##kan": 9126, "marek": 29318, "braves": 13980, "crotch": 28629, "separating": 14443, "narration": 21283, "verb": 12034, "vertical": 7471, "##\ufb02": 30511, "patriots": 11579, "monks": 9978, "wry": 24639, "[unused22]": 23, "##nish": 24014, "seated": 8901, "singapore": 5264, "influencing": 25870, "pi": 14255, "pledge": 16393, "laughs": 11680, "abyss": 22159, "\u8c37": 1951, "lancashire": 9638, "license": 6105, "maureen": 19167, "nobility": 11760, "bred": 13680, "##fare": 17883, "commodities": 21955, "installing": 23658, "\u30e5": 1729, "tsunami": 19267, "##\u10d5": 29979, "##edo": 26010, "132": 14078, "nh": 18699, "prefecture": 7498, "[unused121]": 126, "godzilla": 26631, "andrews": 9261, "wounding": 27285, "frequently": 4703, "sexual": 4424, "##cial": 13247, "true": 2995, "disaster": 7071, "proprietor": 21584, "##dian": 11692, "deformation": 29130, "march": 2233, "corrupted": 27279, "remembered": 4622, "noctuidae": 24893, "octopus": 24318, "canopy": 14582, "hitler": 8042, "generators": 16937, "resembled": 15881, "debt": 7016, "pulp": 16016, "##avs": 29553, "natalia": 21521, "fewer": 8491, "brock": 13899, "pieter": 23759, "##ross": 25725, "ign": 16270, "##ation": 3370, "##lal": 13837, "wrapped": 5058, "hurling": 10839, "survive": 5788, "##\u0989": 29886, "gerry": 14926, "flashed": 8373, "isabel": 11648, "bidding": 17534, "savanna": 22323, "taunting": 29442, "humor": 8562, "##erie": 17378, "rai": 15547, "sue": 9790, "johanna": 21498, "##olate": 19425, "worried": 5191, "barefoot": 22985, "youth": 3360, "##rk": 8024, "fledgling": 25954, "futuristic": 28971, "textual": 25304, "ranges": 8483, "##dra": 7265, "commitment": 8426, "##\u10d9": 29982, "depleted": 22595, "khorasan": 23225, "satisfaction": 9967, "##bine": 16765, "##dy": 5149, "[unused535]": 540, "contributors": 16884, "porsche": 16099, "##ert": 8743, "creamy": 24519, "steward": 17946, "descent": 6934, "integrate": 17409, "routinely": 19974, "co\u2082": 20190, "excursion": 26144, "##arian": 12199, "wasp": 19411, "clearing": 8430, "commercially": 11088, "newcastle": 8142, "sitcom": 13130, "troupe": 16017, "ulster": 11059, "antonio": 4980, "##neck": 18278, "upgrade": 12200, "[unused534]": 539, "thousands": 5190, "positively": 13567, "supervised": 13588, "##lum": 12942, "installed": 5361, "mcmahon": 17741, "ordered": 3641, "##tc": 13535, "internationale": 21339, "transmitting": 23820, "a": 1037, "##for": 29278, "depicting": 10775, "\u1d4f": 1501, "tod": 28681, "1645": 26081, "planes": 9738, "apostolic": 11815, "homage": 14822, "\u6d77": 1902, "bonn": 19349, "##\u83ef": 30468, "hilda": 21589, "##eux": 20860, "expulsion": 18272, "breathe": 7200, "receipts": 28258, "##swell": 19228, "wasting": 18313, "norwich": 12634, "grasped": 15517, "##\u0906": 29848, "agenda": 11376, "##itis": 13706, "##vc": 25465, "##bry": 25731, "poets": 9736, "envisioned": 18035, "maneuver": 17519, "1993": 2857, "rn": 29300, "##lak": 23451, "##tablished": 28146, "er": 9413, "tipped": 11182, "shrubs": 18812, "spatial": 13589, "##wes": 18192, "##\u05d9": 29796, "clapping": 27104, "definite": 15298, "lesley": 23920, "leigh": 11797, "##oxide": 28479, "australians": 15739, "dario": 26800, "swollen": 13408, "sack": 12803, "vent": 18834, "##dry": 21190, "wages": 12678, "anytime": 15933, "achieved": 4719, "maltese": 18563, "mayfair": 28387, "[unused947]": 952, "1942": 3758, "}": 1065, "337": 28489, "rainy": 16373, "palma": 23985, "exploitation": 14427, "fossils": 11954, "sensor": 13617, "##idon": 28201, "banging": 22255, "hampshire": 7035, "saxon": 10038, "12th": 5940, "groups": 2967, "##lz": 23858, "[unused720]": 725, "[unused553]": 558, "##rank": 26763, "alumnus": 19678, "appeared": 2596, "officer": 2961, "##fo": 14876, "harley": 13653, "caine": 19881, "exempt": 11819, "sonia": 16244, "ceramics": 17314, "\u057a": 1233, "##fully": 7699, "##systems": 29390, "messaging": 24732, "shuffle": 23046, "utc": 11396, "##khov": 25495, "represent": 5050, "##brates": 25258, "##8": 2620, "pressure": 3778, "180": 8380, "crazy": 4689, "embryo": 28086, "women": 2308, "##ccus": 27631, "honneur": 28197, "sales": 4341, "mu": 14163, "mum": 12954, "fitness": 10516, "##plate": 15725, "##zzle": 17644, "##\u099f": 29895, "protestant": 8330, "threatened": 5561, "##avi": 18891, "##yev": 17240, "wholesale": 17264, "blocked": 8534, "miniseries": 13612, "montrose": 24990, "guilty": 5905, "lakes": 6597, "clients": 7846, "arterial": 25543, "define": 9375, "oakley": 28876, "referees": 25118, "wealth": 7177, "levine": 17780, "##yna": 18279, "##pour": 27757, "collaborators": 21315, "recommendation": 12832, "pasta": 24857, "##ammed": 27479, "##idal": 16975, "appalled": 29279, "mab": 26661, "urgently": 25478, "\u6587": 1861, "penalty": 6531, "roads": 4925, "completion": 6503, "washed": 8871, "##unced": 22392, "discus": 26047, "alcoholism": 25519, "incarnation": 15715, "wingspan": 9635, "bone": 5923, "1939": 3912, "monitoring": 8822, "275": 17528, "exceeding": 17003, "sweeps": 26981, "suffix": 16809, "corresponded": 27601, "headache": 14978, "\u11ab": 1485, "herds": 28822, "##ennial": 22929, "wes": 14008, "faint": 8143, "\u529b": 1778, "hearings": 19153, "temperament": 26270, "\u03c7": 1177, "##it": 4183, "nobleman": 18487, "polling": 17888, "##rok": 27923, "##\u571f": 30327, "lets": 11082, "gradient": 17978, "doi": 9193, "[unused84]": 85, "cassie": 8869, "dickson": 22076, "misunderstanding": 24216, "##eke": 23941, "prostitutes": 20833, "1702": 26776, "hare": 14263, "##iform": 22631, "hoax": 28520, "##ally": 3973, "avenues": 20859, "mighty": 10478, "housing": 3847, "elegance": 27745, "olympus": 26742, "billion": 4551, "pediatric": 23614, "surf": 14175, "reynolds": 9579, "##sul": 23722, "meritorious": 22053, "contexts": 18046, "##gat": 20697, "[unused730]": 735, "colleagues": 8628, "pushing": 6183, "yunnan": 21607, "dramas": 16547, "##hand": 11774, "[unused95]": 96, "backbone": 21505, "##apes": 29040, "forgive": 9641, "howie": 28211, "hunts": 28526, "wrenched": 26971, "\u5916": 1809, "venus": 11691, "saskatoon": 25447, "tearing": 13311, "animals": 4176, "##hed": 9072, "introduced": 3107, "switches": 15924, "##yk": 15922, "sensing": 13851, "monaco": 14497, "##bb": 10322, "##rdi": 17080, "io": 22834, "[unused478]": 483, "radius": 12177, "inscribed": 14551, "bothering": 17067, "reflections": 16055, "sort": 4066, "##race": 22903, "would": 2052, "mainly": 3701, "vincenzo": 24712, "powerplant": 19526, "[unused364]": 369, "acute": 11325, "technique": 6028, "insistent": 29204, "janeiro": 11497, "##iate": 13143, "##\u05d1": 29789, "bk": 23923, "poly": 26572, "croix": 18733, "##yne": 9654, "blushing": 25771, "ho": 7570, "rises": 9466, "metres": 3620, "terminal": 5536, "couch": 6411, "##\u76f8": 30445, "alam": 26234, "telling": 4129, "##aran": 20486, "##\u0435\u0432\u0438\u0447": 22646, "[PAD]": 0, "counted": 8897, "lock": 5843, "mischief": 25166, "\u5e73": 1839, "cylinder": 7956,
[...]
